<unk>	0
<s>	0
</s>	0
<pad>	0
<bos>	0
<eos>	0
<0x00>	0
<0x01>	0
<0x02>	0
<0x03>	0
<0x04>	0
<0x05>	0
<0x06>	0
<0x07>	0
<0x08>	0
<0x09>	0
<0x0A>	0
<0x0B>	0
<0x0C>	0
<0x0D>	0
<0x0E>	0
<0x0F>	0
<0x10>	0
<0x11>	0
<0x12>	0
<0x13>	0
<0x14>	0
<0x15>	0
<0x16>	0
<0x17>	0
<0x18>	0
<0x19>	0
<0x1A>	0
<0x1B>	0
<0x1C>	0
<0x1D>	0
<0x1E>	0
<0x1F>	0
<0x20>	0
<0x21>	0
<0x22>	0
<0x23>	0
<0x24>	0
<0x25>	0
<0x26>	0
<0x27>	0
<0x28>	0
<0x29>	0
<0x2A>	0
<0x2B>	0
<0x2C>	0
<0x2D>	0
<0x2E>	0
<0x2F>	0
<0x30>	0
<0x31>	0
<0x32>	0
<0x33>	0
<0x34>	0
<0x35>	0
<0x36>	0
<0x37>	0
<0x38>	0
<0x39>	0
<0x3A>	0
<0x3B>	0
<0x3C>	0
<0x3D>	0
<0x3E>	0
<0x3F>	0
<0x40>	0
<0x41>	0
<0x42>	0
<0x43>	0
<0x44>	0
<0x45>	0
<0x46>	0
<0x47>	0
<0x48>	0
<0x49>	0
<0x4A>	0
<0x4B>	0
<0x4C>	0
<0x4D>	0
<0x4E>	0
<0x4F>	0
<0x50>	0
<0x51>	0
<0x52>	0
<0x53>	0
<0x54>	0
<0x55>	0
<0x56>	0
<0x57>	0
<0x58>	0
<0x59>	0
<0x5A>	0
<0x5B>	0
<0x5C>	0
<0x5D>	0
<0x5E>	0
<0x5F>	0
<0x60>	0
<0x61>	0
<0x62>	0
<0x63>	0
<0x64>	0
<0x65>	0
<0x66>	0
<0x67>	0
<0x68>	0
<0x69>	0
<0x6A>	0
<0x6B>	0
<0x6C>	0
<0x6D>	0
<0x6E>	0
<0x6F>	0
<0x70>	0
<0x71>	0
<0x72>	0
<0x73>	0
<0x74>	0
<0x75>	0
<0x76>	0
<0x77>	0
<0x78>	0
<0x79>	0
<0x7A>	0
<0x7B>	0
<0x7C>	0
<0x7D>	0
<0x7E>	0
<0x7F>	0
<0x80>	0
<0x81>	0
<0x82>	0
<0x83>	0
<0x84>	0
<0x85>	0
<0x86>	0
<0x87>	0
<0x88>	0
<0x89>	0
<0x8A>	0
<0x8B>	0
<0x8C>	0
<0x8D>	0
<0x8E>	0
<0x8F>	0
<0x90>	0
<0x91>	0
<0x92>	0
<0x93>	0
<0x94>	0
<0x95>	0
<0x96>	0
<0x97>	0
<0x98>	0
<0x99>	0
<0x9A>	0
<0x9B>	0
<0x9C>	0
<0x9D>	0
<0x9E>	0
<0x9F>	0
<0xA0>	0
<0xA1>	0
<0xA2>	0
<0xA3>	0
<0xA4>	0
<0xA5>	0
<0xA6>	0
<0xA7>	0
<0xA8>	0
<0xA9>	0
<0xAA>	0
<0xAB>	0
<0xAC>	0
<0xAD>	0
<0xAE>	0
<0xAF>	0
<0xB0>	0
<0xB1>	0
<0xB2>	0
<0xB3>	0
<0xB4>	0
<0xB5>	0
<0xB6>	0
<0xB7>	0
<0xB8>	0
<0xB9>	0
<0xBA>	0
<0xBB>	0
<0xBC>	0
<0xBD>	0
<0xBE>	0
<0xBF>	0
<0xC0>	0
<0xC1>	0
<0xC2>	0
<0xC3>	0
<0xC4>	0
<0xC5>	0
<0xC6>	0
<0xC7>	0
<0xC8>	0
<0xC9>	0
<0xCA>	0
<0xCB>	0
<0xCC>	0
<0xCD>	0
<0xCE>	0
<0xCF>	0
<0xD0>	0
<0xD1>	0
<0xD2>	0
<0xD3>	0
<0xD4>	0
<0xD5>	0
<0xD6>	0
<0xD7>	0
<0xD8>	0
<0xD9>	0
<0xDA>	0
<0xDB>	0
<0xDC>	0
<0xDD>	0
<0xDE>	0
<0xDF>	0
<0xE0>	0
<0xE1>	0
<0xE2>	0
<0xE3>	0
<0xE4>	0
<0xE5>	0
<0xE6>	0
<0xE7>	0
<0xE8>	0
<0xE9>	0
<0xEA>	0
<0xEB>	0
<0xEC>	0
<0xED>	0
<0xEE>	0
<0xEF>	0
<0xF0>	0
<0xF1>	0
<0xF2>	0
<0xF3>	0
<0xF4>	0
<0xF5>	0
<0xF6>	0
<0xF7>	0
<0xF8>	0
<0xF9>	0
<0xFA>	0
<0xFB>	0
<0xFC>	0
<0xFD>	0
<0xFE>	0
<0xFF>	0
一个	-0
可以	-1
我们	-2
in	-3
▁t	-4
▁a	-5
he	-6
▁-	-7
▁1	-8
文本	-9
需要	-10
er	-11
问题	-12
▁2	-13
on	-14
提供	-15
智能	-16
给定	-17
re	-18
使用	-19
an	-20
以下	-21
根据	-22
or	-23
en	-24
进行	-25
生成	-26
技术	-27
▁s	-28
▁3	-29
电影	-30
句子	-31
学习	-32
at	-33
文章	-34
is	-35
是一	-36
自己	-37
这个	-38
人工	-39
公司	-40
时间	-41
工作	-42
人工智能	-43
数据	-44
一些	-45
▁"	-46
le	-47
内容	-48
▁the	-49
00	-50
ar	-51
▁根据	-52
ing	-53
健康	-54
▁b	-55
▁c	-56
他们	-57
▁4	-58
▁f	-59
ou	-60
▁w	-61
it	-62
es	-63
非常	-64
包括	-65
ic	-66
中的	-67
生活	-68
▁d	-69
▁5	-70
帮助	-71
▁p	-72
通过	-73
om	-74
发展	-75
重要	-76
好的	-77
▁给	-78
喜欢	-79
▁2.	-80
▁3.	-81
给定的	-82
影响	-83
▁m	-84
▁1.	-85
可能	-86
单词	-87
提高	-88
数字	-89
它们	-90
应用	-91
这些	-92
一篇	-93
信息	-94
nd	-95
建议	-96
计算	-97
人类	-98
自己的	-99
模型	-100
什么	-101
环境	-102
▁给定	-103
al	-104
如何	-105
``	-106
▁o	-107
描述	-108
语言	-109
▁A	-110
人们	-111
我们的	-112
例如	-113
▁to	-114
▁在	-115
▁请	-116
方式	-117
el	-118
领域	-119
▁l	-120
▁T	-121
产品	-122
你的	-123
▁in	-124
▁我	-125
对话	-126
ed	-127
▁and	-128
选择	-129
能够	-130
主题	-131
▁4.	-132
未来	-133
不同	-134
更加	-135
关键	-136
自然	-137
▁=	-138
20	-139
同时	-140
▁将	-141
城市	-142
小明	-143
计划	-144
应该	-145
任务	-146
机器	-147
个人	-148
是一个	-149
新的	-150
as	-151
保持	-152
市场	-153
关于	-154
成为	-155
减少	-156
已经	-157
两个	-158
ro	-159
▁给出	-160
因为	-161
翻译	-162
许多	-163
▁5.	-164
保护	-165
活动	-166
th	-167
方面	-168
所有	-169
一段	-170
处理	-171
um	-172
▁B	-173
▁h	-174
方法	-175
没有	-176
列表	-177
更多	-178
之一	-179
到了	-180
我的	-181
ent	-182
▁S	-183
分类	-184
▁6	-185
以及	-186
但是	-187
解决	-188
全球	-189
生成一个	-190
▁n	-191
输出	-192
回答	-193
身体	-194
文化	-195
▁I	-196
研究	-197
ac	-198
用户	-199
世界	-200
之间	-201
介绍	-202
▁这	-203
ion	-204
开始	-205
目标	-206
不断	-207
主要	-208
包含	-209
:“	-210
▁of	-211
输入	-212
了解	-213
服务	-214
变化	-215
故事	-216
10	-217
us	-218
系统	-219
如果	-220
训练	-221
大的	-222
--	-223
et	-224
il	-225
音乐	-226
ver	-227
能力	-228
他的	-229
。”	-230
分析	-231
管理	-232
社会	-233
安全	-234
其中	-235
▁(	-236
您的	-237
实现	-238
要求	-239
▁|	-240
成功	-241
饮食	-242
编辑	-243
am	-244
▁8	-245
相关	-246
带来	-247
hn	-248
__	-249
其他	-250
错误	-251
历史	-252
科技	-253
了一	-254
▁7	-255
▁e	-256
运动	-257
ay	-258
im	-259
支持	-260
▁为	-261
段落	-262
▁J	-263
发现	-264
情感	-265
正在	-266
英文	-267
名称	-268
▁is	-269
社交	-270
▁g	-271
这段	-272
推荐	-273
挑战	-274
他们的	-275
因此	-276
人的	-277
标题	-278
```	-279
无法	-280
▁```	-281
▁“	-282
▁[	-283
导致	-284
旅游	-285
气候	-286
确保	-287
动物	-288
ohn	-289
AI	-290
以上	-291
认为	-292
ve	-293
的人	-294
▁re	-295
的影响	-296
程序	-297
关键词	-298
机器学习	-299
是一种	-300
经验	-301
▁根据给定的	-302
此外	-303
日期	-304
天气	-305
之间的	-306
注意	-307
完成	-308
各种	-309
考虑	-310
对话内容	-311
将其	-312
科学	-313
结果	-314
对于	-315
网络	-316
是否	-317
og	-318
角色	-319
重要的	-320
▁9	-321
▁M	-322
企业	-323
电子	-324
中国	-325
客户	-326
下面	-327
语法	-328
具有	-329
更好	-330
找到	-331
最近	-332
邮件	-333
ig	-334
随着	-335
▁y	-336
医疗	-337
技能	-338
环保	-339
一组	-340
更多的	-341
的文章	-342
很多	-343
今天	-344
咖啡	-345
▁P	-346
学生	-347
效率	-348
if	-349
ow	-350
适合	-351
一起	-352
理解	-353
中文	-354
投资	-355
计算机	-356
公司的	-357
可以帮助	-358
。"	-359
ce	-360
ut	-361
的地	-362
▁给定一个	-363
手机	-364
算法	-365
出现	-366
质量	-367
避免	-368
pp	-369
更好地	-370
st	-371
一份	-372
yth	-373
▁C	-374
合作	-375
总结	-376
持续	-377
新闻	-378
朋友	-379
每个	-380
技术的	-381
感到	-382
▁小明	-383
增加	-384
积极	-385
qu	-386
一种	-387
ec	-388
一位	-389
来越	-390
翻译成	-391
不同的	-392
越来越	-393
团队	-394
1,	-395
ol	-396
ython	-397
作为	-398
预测	-399
销售	-400
ran	-401
获得	-402
ob	-403
采取	-404
能源	-405
▁L	-406
气候变化	-407
▁The	-408
▁文本	-409
年轻	-410
▁th	-411
GP	-412
ot	-413
并且	-414
过程	-415
id	-416
情况	-417
设计	-418
利用	-419
一下	-420
ad	-421
创建	-422
教育	-423
资源	-424
媒体	-425
关注	-426
机会	-427
解释	-428
GPT	-429
措施	-430
项目	-431
准备	-432
压力	-433
自动	-434
然后	-435
类型	-436
▁for	-437
游戏	-438
编写	-439
ir	-440
风险	-441
兴趣	-442
0,	-443
旅行	-444
最后	-445
▁小	-446
ge	-447
的问题	-448
太阳	-449
义词	-450
努力	-451
拥有	-452
表达	-453
我们可以	-454
制定	-455
ur	-456
开发	-457
关系	-458
ul	-459
▁j	-460
食物	-461
▁W	-462
有效	-463
起来	-464
▁H	-465
广泛	-466
",	-467
加入	-468
寻找	-469
▁6.	-470
家庭	-471
的句子	-472
产生	-473
制作	-474
需求	-475
un	-476
排序	-477
具体	-478
正确	-479
社交媒体	-480
识别	-481
▁以下	-482
体验	-483
摘要	-484
基于	-485
小说	-486
餐厅	-487
▁D	-488
生产	-489
▁st	-490
希望	-491
阅读	-492
知道	-493
简单	-494
ice	-495
2,	-496
2:	-497
建立	-498
交通	-499
19	-500
食品	-501
探索	-502
职业	-503
可能会	-504
▁you	-505
不仅	-506
创造	-507
功能	-508
字符	-509
1:	-510
知识	-511
表现	-512
上的	-513
抱歉	-514
方案	-515
ke	-516
告诉	-517
答案	-518
这种	-519
地球	-520
才能	-521
我们需要	-522
它的	-523
用于	-524
美食	-525
健康的	-526
提供的	-527
艺术	-528
..	-529
控制	-530
它们的	-531
疾病	-532
文本内容	-533
工具	-534
现代	-535
首先	-536
自然语言	-537
你好	-538
存在	-539
美国	-540
ist	-541
的一	-542
当地	-543
量的	-544
行业	-545
."	-546
ly	-547
uc	-548
准确	-549
尝试	-550
The	-551
任何	-552
使其	-553
的主要	-554
”。	-555
三个	-556
了一个	-557
可以通过	-558
▁E	-559
行为	-560
部分	-561
我会	-562
蔬菜	-563
通常	-564
的电影	-565
经济	-566
的发展	-567
的重要	-568
字母	-569
步骤	-570
000	-571
英语	-572
适当	-573
最终	-574
▁给我	-575
有关	-576
ation	-577
性的	-578
治疗	-579
▁给出一个	-580
价格	-581
著名	-582
健身	-583
然而	-584
▁+	-585
享受	-586
购买	-587
ers	-588
od	-589
从而	-590
技巧	-591
色的	-592
row	-593
是什么	-594
联网	-595
充满	-596
心理	-597
▁20	-598
一篇文章	-599
这样	-600
ate	-601
联系	-602
ith	-603
▁on	-604
性和	-605
给出	-606
可持续	-607
拼写	-608
有趣	-609
苹果	-610
营销	-611
锻炼	-612
评论	-613
int	-614
一直	-615
交流	-616
生物	-617
▁be	-618
ab	-619
习惯	-620
分钟	-621
平均	-622
行动	-623
专业	-624
传统	-625
),	-626
ort	-627
建筑	-628
污染	-629
▁编辑	-630
品牌	-631
因素	-632
水果	-633
确定	-634
讨论	-635
数据集	-636
的工作	-637
15	-638
参加	-639
必须	-640
▁10	-641
▁qu	-642
谢谢	-643
▁F	-644
练习	-645
▁生成	-646
发生	-647
景点	-648
范围	-649
表示	-650
应用程序	-651
12	-652
变得	-653
ps	-654
▁《	-655
材料	-656
事件	-657
公园	-658
定的	-659
设备	-660
ell	-661
更好的	-662
az	-663
▁pr	-664
吸引	-665
改变	-666
文字	-667
比赛	-668
生态	-669
▁2,	-670
▁fo	-671
价值	-672
美丽	-673
现在	-674
软件	-675
还是	-676
自然语言处理	-677
est	-678
列出	-679
转换	-680
重新	-681
ick	-682
▁de	-683
----	-684
商业	-685
每天	-686
电子邮件	-687
或者	-688
购物	-689
感谢	-690
▁提供	-691
相关的	-692
测试	-693
▁John	-694
5,	-695
▁总	-696
深度	-697
John	-698
员工	-699
也是	-700
快速	-701
▁将以下	-702
se	-703
202	-704
▁7.	-705
经历	-706
)。	-707
av	-708
意识	-709
是的	-710
最大	-711
负面	-712
lice	-713
丰富	-714
决定	-715
放松	-716
竞争	-717
编程	-718
不是	-719
不要	-720
来说	-721
语音	-722
▁he	-723
句话	-724
▁wor	-725
ri	-726
不可	-727
比如	-728
生命	-729
▁角色	-730
字符串	-731
适当的	-732
ld	-733
按照	-734
▁5,	-735
▁句子	-736
可以在	-737
可以使用	-738
创新	-739
助于	-740
汽车	-741
睡眠	-742
短文	-743
▁dog	-744
代码	-745
共同	-746
部电影	-747
决策	-748
哪些	-749
得到	-750
▁问题	-751
▁'	-752
作品	-753
情节	-754
高兴	-755
喜欢的	-756
有助于	-757
改善	-758
讲述	-759
玛丽	-760
金融	-761
▁电影	-762
场景	-763
数学	-764
▁描述	-765
创建一个	-766
变暖	-767
相信	-768
消费	-769
简短	-770
虽然	-771
了一些	-772
这个问题	-773
一步	-774
作用	-775
继续	-776
趋势	-777
的故事	-778
由于	-779
短语	-780
组织	-781
生活方式	-782
平衡	-783
行星	-784
▁over	-785
op	-786
会议	-787
当然	-788
▁原	-789
加强	-790
独特	-791
ter	-792
▁3,	-793
大利	-794
隐私	-795
互联网	-796
rown	-797
人物	-798
增强	-799
应对	-800
的时间	-801
等等	-802
策略	-803
our	-804
▁with	-805
检查	-806
▁G	-807
促进	-808
老师	-809
end	-810
Python	-811
ex	-812
力和	-813
受到	-814
欢迎	-815
告诉我	-816
ence	-817
全球变暖	-818
▁人工智能	-819
自由	-820
▁it	-821
演员	-822
造成	-823
并提供	-824
孩子	-825
报道	-826
歌曲	-827
为了	-828
我想	-829
足够	-830
顺序	-831
azy	-832
ch	-833
返回	-834
还有	-835
良好的	-836
____	-837
以便	-838
化的	-839
排放	-840
添加	-841
过去	-842
进步	-843
风格	-844
▁quick	-845
政府	-846
▁N	-847
位置	-848
▁are	-849
并在	-850
her	-851
▁ex	-852
我无法	-853
▁生成一个	-854
中心	-855
这里	-856
30	-857
事情	-858
后的	-859
网站	-860
▁le	-861
▁fox	-862
作者	-863
几个	-864
原因	-865
特征	-866
的应用	-867
iv	-868
一名	-869
医生	-870
商品	-871
随机	-872
▁主题	-873
其中的	-874
著名的	-875
ment	-876
ew	-877
一次	-878
数量	-879
的建议	-880
不能	-881
基础	-882
意义	-883
沟通	-884
▁al	-885
》(	-886
令人	-887
自我	-888
调整	-889
面临	-890
▁4,	-891
▁jum	-892
深度学习	-893
3,	-894
▁李	-895
北京	-896
安排	-897
”,	-898
思考	-899
满足	-900
同义词	-901
同时也	-902
意大利	-903
的主要内容	-904
50	-905
你们	-906
瑜伽	-907
降低	-908
ain	-909
做出	-910
元素	-911
分享	-912
背景	-913
适应	-914
res	-915
▁an	-916
▁com	-917
判断	-918
报告	-919
摄入	-920
ant	-921
简单的	-922
▁con	-923
使得	-924
张三	-925
想法	-926
水平	-927
采用	-928
人们的	-929
▁brown	-930
▁#	-931
日常	-932
替换	-933
ess	-934
这段文本	-935
18	-936
垃圾	-937
100	-938
▁that	-939
▁R	-940
一只	-941
地点	-942
巴黎	-943
蛋白	-944
Tom	-945
day	-946
▁8,	-947
一篇关于	-948
):	-949
在线	-950
多种	-951
▁lazy	-952
人工智能技术	-953
▁v	-954
高效	-955
人类的	-956
其次	-957
展示	-958
评分	-959
imp	-960
每个人	-961
的单词	-962
创作	-963
名字	-964
番茄	-965
是一部	-966
ht	-967
科幻	-968
诊断	-969
▁by	-970
▁这个	-971
并输出	-972
总结以上	-973
ct	-974
一家	-975
平台	-976
时候	-977
特点	-978
适的	-979
▁8.	-980
过程中	-981
一段文本	-982
总结以上对话	-983
总结以上对话的主要内容	-984
os	-985
▁对	-986
力的	-987
在家	-988
复杂	-989
者的	-990
不错	-991
她的	-992
实际	-993
目前	-994
相似	-995
听起来	-996
请总结以上对话的主要内容	-997
▁*	-998
▁r	-999
快乐	-1000
改进	-1001
一首	-1002
rand	-1003
上最	-1004
名词	-1005
感觉	-1006
搜索	-1007
ore	-1008
有什么	-1009
至少	-1010
这是	-1011
▁print	-1012
em	-1013
逐渐	-1014
长度	-1015
out	-1016
目的地	-1017
业务	-1018
情绪	-1019
我很	-1020
汤姆	-1021
觉得	-1022
▁jumps	-1023
XX	-1024
ap	-1025
▁0	-1026
小时	-1027
工程	-1028
植物	-1029
结构	-1030
续写	-1031
one	-1032
▁使用	-1033
未来的	-1034
解决方案	-1035
▁角色介绍	-1036
有着	-1037
你需要	-1038
我喜欢	-1039
美丽的	-1040
对话内容回答	-1041
▁O	-1042
形式	-1043
那么	-1044
ack	-1045
文本中	-1046
的方法	-1047
语法错误	-1048
人员	-1049
听说	-1050
特别	-1051
平均值	-1052
还可以	-1053
pple	-1054
▁从	-1055
提取	-1056
进一步	-1057
▁请续写	-1058
▁请续写他们的	-1059
▁请续写他们的对话内容	-1060
▁很	-1061
容易	-1062
等方面	-1063
当前	-1064
推广	-1065
年轻的	-1066
的信息	-1067
▁imp	-1068
语言模型	-1069
公共	-1070
营养	-1071
最佳	-1072
美元	-1073
阳光	-1074
为什么	-1075
成为了	-1076
文本内容回答	-1077
年龄	-1078
执行	-1079
操作	-1080
效果	-1081
是在	-1082
现实	-1083
系列	-1084
让我	-1085
蛋白质	-1086
去了	-1087
条件	-1088
深入	-1089
电视	-1090
评估	-1091
贡献	-1092
▁文章	-1093
篇文章	-1094
▁pro	-1095
减轻	-1096
困难	-1097
学校	-1098
森林	-1099
ime	-1100
▁we	-1101
写作	-1102
孤独	-1103
特定	-1104
空气	-1105
获取	-1106
高的	-1107
ie	-1108
地区	-1109
基本	-1110
▁基于	-1111
机器人	-1112
生活中	-1113
家居	-1114
提出	-1115
看到	-1116
鼓励	-1117
你可以	-1118
正确的	-1119
nt	-1120
位于	-1121
增长	-1122
探讨	-1123
有些	-1124
提供了	-1125
修改	-1126
函数	-1127
是指	-1128
焦虑	-1129
组成	-1130
选项	-1131
ily	-1132
让我们	-1133
但我	-1134
如下	-1135
姓名	-1136
帮我	-1137
文学	-1138
而且	-1139
科学家	-1140
转换为	-1141
清单	-1142
的是	-1143
▁我们	-1144
想要	-1145
纽约	-1146
面对	-1147
com	-1148
▁1,	-1149
▁Tom	-1150
度和	-1151
成长	-1152
电话	-1153
详细	-1154
4,	-1155
▁第	-1156
学会	-1157
物品	-1158
经常	-1159
说明	-1160
鸡蛋	-1161
▁9.	-1162
▁as	-1163
',	-1164
bb	-1165
实践	-1166
尽管	-1167
成本	-1168
气体	-1169
▁以下是	-1170
以下句子	-1171
▁以下是一	-1172
力量	-1173
寻求	-1174
幸福	-1175
排列	-1176
细节	-1177
词汇	-1178
▁my	-1179
所以	-1180
无论	-1181
法语	-1182
观点	-1183
ark	-1184
最喜欢的	-1185
▁给定一组	-1186
人工智能的	-1187
定期	-1188
比较	-1189
海滩	-1190
温室	-1191
记录	-1192
都是	-1193
500	-1194
age	-1195
art	-1196
ine	-1197
以确保	-1198
所有的	-1199
输入的	-1200
健康饮食	-1201
6,	-1202
多个	-1203
推动	-1204
混合	-1205
物质	-1206
ect	-1207
ust	-1208
▁数字	-1209
足够的	-1210
生态系统	-1211
:1	-1212
ag	-1213
上海	-1214
取得	-1215
只有	-1216
找出	-1217
整个	-1218
责任	-1219
ill	-1220
多的	-1221
本书	-1222
追求	-1223
面包	-1224
and	-1225
▁en	-1226
▁ha	-1227
成功的	-1228
优化	-1229
呼吸	-1230
爱情	-1231
约翰	-1232
▁总之	-1233
一天	-1234
正面	-1235
海洋	-1236
ial	-1237
▁pl	-1238
受欢迎	-1239
▁根据以下	-1240
8,	-1241
值得	-1242
颜色	-1243
在这个	-1244
应用于	-1245
时间和	-1246
▁Bob	-1247
优势	-1248
大学	-1249
接受	-1250
ive	-1251
▁wh	-1252
带来了	-1253
合理	-1254
很好	-1255
晚上	-1256
示例	-1257
神秘	-1258
我们应该	-1259
散步	-1260
早上	-1261
状态	-1262
精神	-1263
评价	-1264
ike	-1265
▁7,	-1266
学习和	-1267
动作	-1268
多样	-1269
清晰	-1270
预算	-1271
Bob	-1272
一定	-1273
宠物	-1274
家人	-1275
引起	-1276
温度	-1277
ext	-1278
▁最后	-1279
▁首先	-1280
有一个	-1281
▁num	-1282
严重	-1283
为您	-1284
休息	-1285
提示	-1286
最小	-1287
梦想	-1288
模式	-1289
灾害	-1290
香蕉	-1291
200	-1292
▁me	-1293
领域的	-1294
ight	-1295
新闻报道	-1296
代表	-1297
给我	-1298
▁ar	-1299
▁was	-1300
下列	-1301
不会	-1302
地址	-1303
常见	-1304
欣赏	-1305
ear	-1306
也可以	-1307
消费者	-1308
ry	-1309
世纪	-1310
提升	-1311
日本	-1312
星球	-1313
流行	-1314
潜在	-1315
神经	-1316
ple	-1317
拼写错误	-1318
参与	-1319
形成	-1320
必要	-1321
思维	-1322
政策	-1323
爱好	-1324
脂肪	-1325
ang	-1326
ure	-1327
▁ch	-1328
▁编写	-1329
的地方	-1330
的方式	-1331
iz	-1332
▁写	-1333
上升	-1334
定义	-1335
我在	-1336
经典	-1337
random	-1338
电脑	-1339
▁6,	-1340
ud	-1341
▁Y	-1342
保证	-1343
年的	-1344
明天	-1345
经理	-1346
距离	-1347
丰富的	-1348
大量的	-1349
感兴趣	-1350
最好的	-1351
▁int	-1352
智能手机	-1353
▁根据提供的	-1354
oo	-1355
ue	-1356
冒险	-1357
娱乐	-1358
怎么	-1359
我也	-1360
缓解	-1361
不知道	-1362
▁can	-1363
将会	-1364
类似	-1365
诗歌	-1366
▁12	-1367
合适的	-1368
有很多	-1369
看电影	-1370
温室气体	-1371
7,	-1372
先生	-1373
即可	-1374
密码	-1375
新鲜	-1376
昨天	-1377
深刻	-1378
规划	-1379
重复	-1380
身体健康	-1381
▁给定两个	-1382
直到	-1383
美味	-1384
ind	-1385
▁原始	-1386
和其他	-1387
是一位	-1388
的技术	-1389
专注	-1390
方向	-1391
涉及	-1392
ity	-1393
意思	-1394
流畅	-1395
连接	-1396
我可以	-1397
1.	-1398
▁你	-1399
注重	-1400
翻译成中文	-1401
oc	-1402
制造	-1403
宇宙	-1404
感受	-1405
让人	-1406
▁ab	-1407
▁or	-1408
巨大的	-1409
有趣的	-1410
问题的	-1411
pl	-1412
所需	-1413
跑步	-1414
限制	-1415
食材	-1416
▁分类	-1417
产品的	-1418
关键字	-1419
反义词	-1420
和文化	-1421
书籍	-1422
剧情	-1423
导演	-1424
期待	-1425
游泳	-1426
读者	-1427
财务	-1428
单词的	-1429
城市的	-1430
环境保护	-1431
可持续发展	-1432
▁i	-1433
多少	-1434
大量	-1435
小红	-1436
度的	-1437
强调	-1438
提醒	-1439
时代	-1440
空间	-1441
职位	-1442
2022	-1443
:"	-1444
动词	-1445
标准	-1446
设置	-1447
这一	-1448
独特的	-1449
自动化	-1450
预训练	-1451
最重要的	-1452
塑料	-1453
掌握	-1454
整数	-1455
歌词	-1456
牛奶	-1457
状况	-1458
如果你	-1459
able	-1460
英文文本	-1461
▁Alice	-1462
▁<	-1463
不过	-1464
另外	-1465
就是	-1466
总是	-1467
查找	-1468
法国	-1469
表明	-1470
视频	-1471
的情感	-1472
季节	-1473
属于	-1474
性能	-1475
真正	-1476
蛋糕	-1477
视觉	-1478
论文	-1479
的文本	-1480
▁很抱歉	-1481
提供一个	-1482
智能家居	-1483
医学	-1484
愉快	-1485
法律	-1486
肌肉	-1487
▁Th	-1488
数据的	-1489
电影的	-1490
▁have	-1491
:《	-1492
ia	-1493
分为	-1494
地方	-1495
好处	-1496
舒适	-1497
调查	-1498
超过	-1499
are	-1500
ring	-1501
Alice	-1502
▁该	-1503
并将	-1504
真的	-1505
素食	-1506
自行	-1507
ace	-1508
ard	-1509
ary	-1510
ies	-1511
▁输出	-1512
了许多	-1513
简短的	-1514
进行分类	-1515
ib	-1516
个性	-1517
并不	-1518
方便	-1519
符号	-1520
简要	-1521
太阳系	-1522
工程师	-1523
的主题	-1524
生成一篇	-1525
英文句子	-1526
这是一个	-1527
这段对话内容回答	-1528
广告	-1529
生存	-1530
生素	-1531
符合	-1532
针对	-1533
对环境	-1534
并将其	-1535
▁关键词	-1536
世界上最	-1537
变得更加	-1538
99	-1539
?”	-1540
▁x	-1541
下来	-1542
五个	-1543
删除	-1544
反馈	-1545
披萨	-1546
的新	-1547
速度	-1548
25	-1549
克的	-1550
品尝	-1551
明确	-1552
all	-1553
和一个	-1554
很高兴	-1555
是一篇	-1556
python	-1557
主义	-1558
优秀	-1559
前往	-1560
指定	-1561
自信	-1562
ord	-1563
当地的	-1564
数字的	-1565
最大的	-1566
▁根据以上	-1567
ee	-1568
发布	-1569
达到	-1570
那里	-1571
预防	-1572
鸡肉	-1573
num	-1574
▁fr	-1575
文化和	-1576
下午	-1577
人生	-1578
晚餐	-1579
标签	-1580
爱的	-1581
表演	-1582
驾驶	-1583
▁us	-1584
情况下	-1585
积极的	-1586
创业	-1587
放入	-1588
次数	-1589
简历	-1590
类别	-1591
转化	-1592
ook	-1593
什么是	-1594
您需要	-1595
有效的	-1596
语法和	-1597
▁10.	-1598
▁我喜欢	-1599
负面影响	-1600
▁为给定的	-1601
仍然	-1602
认识	-1603
资金	-1604
ous	-1605
▁ma	-1606
▁你好	-1607
带来的	-1608
效率和	-1609
是一名	-1610
▁202	-1611
这部电影	-1612
及其	-1613
成就	-1614
指导	-1615
氧化	-1616
浪费	-1617
温暖	-1618
美好	-1619
轻松	-1620
适量	-1621
魔法	-1622
ult	-1623
▁am	-1624
▁帮我	-1625
一句话	-1626
等领域	-1627
▁has	-1628
每个人都	-1629
45	-1630
ll	-1631
优点	-1632
及时	-1633
发挥	-1634
推出	-1635
来自	-1636
足球	-1637
过度	-1638
长期	-1639
ome	-1640
▁go	-1641
▁单词	-1642
它可以	-1643
ific	-1644
主人	-1645
国际	-1646
形象	-1647
放在	-1648
某个	-1649
社区	-1650
能量	-1651
虚拟	-1652
ish	-1653
▁Ch	-1654
▁对于	-1655
在未来	-1656
我认为	-1657
2021	-1658
他在	-1659
基因	-1660
威胁	-1661
展现	-1662
早餐	-1663
狐狸	-1664
第二	-1665
▁0.	-1666
以下是	-1667
使用的	-1668
得到了	-1669
的能力	-1670
我们的生活	-1671
▁import	-1672
9,	-1673
ng	-1674
参观	-1675
我是	-1676
模拟	-1677
清洁	-1678
per	-1679
使其更	-1680
ning	-1681
翻译成法语	-1682
ov	-1683
保健	-1684
坚持	-1685
女孩	-1686
就业	-1687
应的	-1688
普及	-1689
的大	-1690
纠正	-1691
课程	-1692
在医疗	-1693
list	-1694
再生	-1695
均匀	-1696
缺点	-1697
规模	-1698
话题	-1699
除了	-1700
领导	-1701
ide	-1702
▁at	-1703
▁抱歉	-1704
和挑战	-1705
还需要	-1706
very	-1707
11	-1708
▁$	-1709
、《	-1710
之前	-1711
并为	-1712
成员	-1713
户外	-1714
智慧	-1715
相互	-1716
破坏	-1717
程度	-1718
认真	-1719
那些	-1720
ara	-1721
▁ad	-1722
▁解释	-1723
尽可能	-1724
您可以	-1725
最大值	-1726
意大利面	-1727
数据分析	-1728
pt	-1729
、“	-1730
优先	-1731
便利	-1732
办公	-1733
博物	-1734
太空	-1735
肖申	-1736
酒店	-1737
具体的	-1738
意识到	-1739
销售额	-1740
ello	-1741
助手	-1742
含义	-1743
夏天	-1744
搅拌	-1745
简洁	-1746
老板	-1747
食谱	-1748
orm	-1749
urn	-1750
的产品	-1751
的食物	-1752
自行车	-1753
遇到了	-1754
hone	-1755
已经成为	-1756
▁把	-1757
事实	-1758
工业	-1759
序列	-1760
形容	-1761
影片	-1762
很有	-1763
气温	-1764
绿色	-1765
act	-1766
▁sp	-1767
的一个	-1768
的天气	-1769
rans	-1770
中的所有	-1771
语音识别	-1772
()	-1773
▁K	-1774
一部	-1775
手表	-1776
撰写	-1777
沙拉	-1778
ana	-1779
ber	-1780
les	-1781
king	-1782
▁/	-1783
女性	-1784
易于	-1785
显示	-1786
烹饪	-1787
股票	-1788
菜单	-1789
进入	-1790
逻辑	-1791
▁是的	-1792
方面的	-1793
ff	-1794
▁{	-1795
▁的	-1796
冥想	-1797
完全	-1798
救赎	-1799
最新	-1800
满意	-1801
缺乏	-1802
题目	-1803
黑洞	-1804
▁小红	-1805
博物馆	-1806
数据和	-1807
维生素	-1808
美好的	-1809
个人信息	-1810
▁基于以上	-1811
▁提供一个	-1812
夏季	-1813
意见	-1814
物理	-1815
甚至	-1816
直接	-1817
结合	-1818
▁9,	-1819
▁ne	-1820
和发展	-1821
技术和	-1822
计算机科学	-1823
下面这段文本	-1824
3:	-1825
],	-1826
oy	-1827
东京	-1828
出色	-1829
开放	-1830
星期	-1831
简介	-1832
观众	-1833
进展	-1834
集中	-1835
ame	-1836
▁el	-1837
听说你	-1838
许多人	-1839
不断发展	-1840
的重要性	-1841
.”	-1842
17	-1843
充分	-1844
巧克	-1845
态度	-1846
本文	-1847
某些	-1848
紧张	-1849
面试	-1850
》、《	-1851
对话中	-1852
有效地	-1853
▁new	-1854
克的救赎	-1855
受欢迎的	-1856
心理健康	-1857
神经网络	-1858
解决问题	-1859
▁创建一个	-1860
它们之间的	-1861
肖申克的救赎	-1862
ha	-1863
你能	-1864
成绩	-1865
烤箱	-1866
篮球	-1867
维护	-1868
胡椒	-1869
”、“	-1870
▁玛丽	-1871
充满了	-1872
另一个	-1873
生活的	-1874
的风险	-1875
经验和	-1876
请提供	-1877
再生能源	-1878
技术的发展	-1879
也有	-1880
您好	-1881
游客	-1882
热情	-1883
用的	-1884
聪明	-1885
这项	-1886
银行	-1887
饮料	-1888
▁un	-1889
▁一个	-1890
▁当然	-1891
一直在	-1892
产生了	-1893
在一起	-1894
技能和	-1895
措施来	-1896
等问题	-1897
reat	-1898
市场营销	-1899
这篇文章	-1900
ample	-1901
:3	-1902
一本	-1903
互动	-1904
图像	-1905
完美	-1906
宣传	-1907
有的	-1908
沙滩	-1909
的小	-1910
相同	-1911
稳定	-1912
让你	-1913
....	-1914
ally	-1915
保护环境	-1916
字母顺序	-1917
出来	-1918
口味	-1919
口感	-1920
天空	-1921
扩大	-1922
症状	-1923
看看	-1924
规则	-1925
都有	-1926
ucy	-1927
也需要	-1928
和社会	-1929
找到了	-1930
的音乐	-1931
**	-1932
14	-1933
东西	-1934
之处	-1935
品质	-1936
完整	-1937
平面	-1938
我对	-1939
是由	-1940
组合	-1941
ove	-1942
的段落	-1943
的一部分	-1944
非常感谢	-1945
:[	-1946
▁k	-1947
▁他	-1948
充足	-1949
内心	-1950
协作	-1951
周末	-1952
地震	-1953
年来	-1954
指南	-1955
洋葱	-1956
监督	-1957
花园	-1958
药物	-1959
词语	-1960
询问	-1961
道德	-1962
随时	-1963
形容词	-1964
必要的	-1965
转化为	-1966
form	-1967
下面这段	-1968
可以提高	-1969
▁给定一段	-1970
▁狗	-1971
一样	-1972
主角	-1973
事物	-1974
享用	-1975
倒入	-1976
发明	-1977
培训	-1978
好了	-1979
尊重	-1980
所在	-1981
收入	-1982
数值	-1983
演讲	-1984
移动	-1985
难以	-1986
ava	-1987
rou	-1988
▁张三	-1989
如果您	-1990
巧克力	-1991
我相信	-1992
的城市	-1993
的环境	-1994
范围内	-1995
两个句子	-1996
▁将给定的	-1997
▁大	-1998
也会	-1999
全面	-2000
农业	-2001
搭配	-2002
橄榄	-2003
燃料	-2004
生日	-2005
眼睛	-2006
离开	-2007
太阳能	-2008
并给出	-2009
建议您	-2010
海平面	-2011
自然灾害	-2012
计算它们的	-2013
:2	-2014
一款	-2015
他人	-2016
克服	-2017
愉悦	-2018
愿意	-2019
打开	-2020
泰坦	-2021
灵活	-2022
突然	-2023
至关	-2024
ise	-2025
▁sh	-2026
的需求	-2027
讲述了	-2028
这本书	-2029
编程语言	-2030
越来越多	-2031
▁world	-2032
各个	-2033
哪个	-2034
开头	-2035
当今	-2036
时尚	-2037
棕色	-2038
概念	-2039
流程	-2040
深远	-2041
都会	-2042
了很多	-2043
名称和	-2044
在一个	-2045
最新的	-2046
的历史	-2047
ount	-2048
中文文章	-2049
旅游景点	-2050
▁将以下句子	-2051
)、	-2052
ci	-2053
人口	-2054
克号	-2055
分配	-2056
前景	-2057
周围	-2058
喜剧	-2059
培养	-2060
尊敬	-2061
患者	-2062
机构	-2063
标点	-2064
班牙	-2065
观察	-2066
访问	-2067
负责	-2068
▁时间	-2069
可能是	-2070
将它们	-2071
尼克号	-2072
我需要	-2073
是中国	-2074
的事情	-2075
西班牙	-2076
公共交通	-2077
泰坦尼克号	-2078
可以帮助我们	-2079
主演	-2080
信任	-2081
出了	-2082
对手	-2083
尤其	-2084
想象	-2085
物种	-2086
男孩	-2087
low	-2088
ong	-2089
▁St	-2090
和服务	-2091
和治疗	-2092
最小值	-2093
可能导致	-2094
非常重要	-2095
▁在给定的	-2096
("	-2097
16	-2098
^2	-2099
ub	-2100
▁用	-2101
上面	-2102
人名	-2103
化学	-2104
小狗	-2105
李明	-2106
isa	-2107
lex	-2108
▁do	-2109
▁if	-2110
▁标题	-2111
优秀的	-2112
挑战和	-2113
▁ret	-2114
▁word	-2115
可再生能源	-2116
--------	-2117
名为	-2118
左右	-2119
数的	-2120
旨在	-2121
极端	-2122
现象	-2123
研发	-2124
行的	-2125
表面	-2126
ase	-2127
ite	-2128
和时间	-2129
是一些	-2130
注意力	-2131
适量的	-2132
▁from	-2133
▁return	-2134
,“	-2135
▁有	-2136
。,	-2137
勇敢	-2138
号码	-2139
回家	-2140
尽量	-2141
心态	-2142
氛围	-2143
这次	-2144
ach	-2145
ast	-2146
▁准备	-2147
下一个	-2148
介绍了	-2149
因为我	-2150
工作和	-2151
常见的	-2152
的来说	-2153
bers	-2154
▁but	-2155
▁text	-2156
▁about	-2157
▁u	-2158
一句	-2159
切成	-2160
勇气	-2161
同事	-2162
数为	-2163
曾经	-2164
格式	-2165
迅速	-2166
▁其次	-2167
▁请为	-2168
并要求	-2169
我们将	-2170
看到了	-2171
"。	-2172
你有	-2173
古代	-2174
大写	-2175
度假	-2176
思想	-2177
put	-2178
健康和	-2179
可能的	-2180
感受到	-2181
的关键	-2182
身体的	-2183
长时间	-2184
两个数字	-2185
作为一个	-2186
如何制作	-2187
▁U	-2188
一条	-2189
具备	-2190
咨询	-2191
哈利	-2192
回收	-2193
律师	-2194
时期	-2195
期间	-2196
试图	-2197
道路	-2198
长的	-2199
ail	-2200
科技的	-2201
进行了	-2202
使其更加	-2203
▁给我推荐	-2204
▁以下是一段	-2205
机器学习算法	-2206
——	-2207
体重	-2208
兴奋	-2209
到达	-2210
区块	-2211
友谊	-2212
年份	-2213
心和	-2214
明白	-2215
等待	-2216
调味	-2217
遇到	-2218
食用	-2219
▁tr	-2220
▁随着	-2221
公园里	-2222
列表中	-2223
尊敬的	-2224
我已经	-2225
是我们	-2226
而不是	-2227
非常有	-2228
▁12,	-2229
60	-2230
CG	-2231
▁V	-2232
▁和	-2233
也在	-2234
做好	-2235
再次	-2236
哪里	-2237
声音	-2238
实时	-2239
是我	-2240
看法	-2241
证据	-2242
身心	-2243
ram	-2244
▁今天	-2245
不断地	-2246
传统的	-2247
区块链	-2248
成一个	-2249
的使用	-2250
的摘要	-2251
▁[1,	-2252
饮食习惯	-2253
Hello	-2254
▁原始文本	-2255
例子	-2256
修正	-2257
分别	-2258
刚刚	-2259
十分	-2260
平方	-2261
担心	-2262
标志	-2263
核心	-2264
概述	-2265
节奏	-2266
设施	-2267
重视	-2268
阿甘	-2269
频率	-2270
风景	-2271
高度	-2272
any	-2273
ass	-2274
ign	-2275
和工作	-2276
和支持	-2277
并解释	-2278
用户的	-2279
的目标	-2280
获得了	-2281
date	-2282
▁random	-2283
▁一	-2284
创意	-2285
反应	-2286
品种	-2287
检测	-2288
泄露	-2289
消极	-2290
热门	-2291
葡萄	-2292
请问	-2293
过滤	-2294
主人公	-2295
可以让	-2296
强大的	-2297
有一些	-2298
橄榄油	-2299
可以根据	-2300
进行排序	-2301
采取行动	-2302
▁like	-2303
▁这是一个	-2304
非常重要的	-2305
▁根据给定的文本	-2306
交互	-2307
交易	-2308
体育	-2309
作家	-2310
可靠	-2311
大家	-2312
尽快	-2313
穿着	-2314
自主	-2315
面粉	-2316
顾客	-2317
▁It	-2318
年轻人	-2319
我们会	-2320
有许多	-2321
的时候	-2322
看起来	-2323
身体和	-2324
mily	-2325
ress	-2326
编写一个	-2327
自动驾驶	-2328
Phone	-2329
ellig	-2330
▁根据输入的	-2331
味道	-2332
喜好	-2333
字的	-2334
战争	-2335
改为	-2336
方程	-2337
机遇	-2338
来源	-2339
汉堡	-2340
润色	-2341
目的	-2342
结束	-2343
花费	-2344
预报	-2345
黄色	-2346
ful	-2347
red	-2348
模型的	-2349
▁10,	-2350
人类活动	-2351
情感分析	-2352
anana	-2353
▁your	-2354
13	-2355
▁中	-2356
一封	-2357
大小	-2358
奶酪	-2359
姿势	-2360
度过	-2361
房间	-2362
浪漫	-2363
独立	-2364
真实	-2365
知名	-2366
种植	-2367
草莓	-2368
餐馆	-2369
▁保持	-2370
▁然而	-2371
了一种	-2372
优先级	-2373
和安全	-2374
很大的	-2375
智能化	-2376
的内容	-2377
等方式	-2378
ould	-2379
▁suc	-2380
标点符号	-2381
网络安全	-2382
:(	-2383
ra	-2384
一杯	-2385
动力	-2386
印度	-2387
只是	-2388
哺乳	-2389
实施	-2390
或缺	-2391
文档	-2392
更正	-2393
每周	-2394
第一	-2395
量子	-2396
你认为	-2397
成功地	-2398
理解和	-2399
不可或缺	-2400
将其中的	-2401
.5	-2402
上映	-2403
先进	-2404
危险	-2405
在于	-2406
对其	-2407
常常	-2408
心情	-2409
感激	-2410
指令	-2411
捷的	-2412
更新	-2413
玩家	-2414
相对	-2415
这将	-2416
▁日期	-2417
▁段落	-2418
两人的	-2419
企业家	-2420
和建议	-2421
因为它	-2422
复杂的	-2423
学生的	-2424
并返回	-2425
应该是	-2426
替换为	-2427
的步骤	-2428
▁day	-2429
感到非常	-2430
生活中的	-2431
erson	-2432
▁cont	-2433
MD	-2434
不足	-2435
中最	-2436
依赖	-2437
失去	-2438
如此	-2439
完善	-2440
循环	-2441
支付	-2442
攻击	-2443
数列	-2444
是个	-2445
有益	-2446
猫咪	-2447
的日	-2448
蓝色	-2449
装饰	-2450
规律	-2451
部门	-2452
▁计算	-2453
专注于	-2454
在这里	-2455
如何在	-2456
物理学	-2457
神秘的	-2458
word	-2459
▁Pro	-2460
▁not	-2461
医疗保健	-2462
温室气体排放	-2463
▁Python	-2464
40	-2465
55	-2466
▁她	-2467
▁重	-2468
一场	-2469
化石	-2470
商人	-2471
商务	-2472
漂亮	-2473
监管	-2474
统计	-2475
达成	-2476
这座	-2477
▁He	-2478
▁列出	-2479
▁最近	-2480
▁给你	-2481
▁苹果	-2482
价值观	-2483
工作中	-2484
最喜欢	-2485
相应的	-2486
近年来	-2487
echn	-2488
olog	-2489
哺乳动物	-2490
可以帮助你	-2491
》。	-2492
事业	-2493
保障	-2494
医院	-2495
卫生	-2496
地图	-2497
夜晚	-2498
大脑	-2499
年代	-2500
建设	-2501
查询	-2502
正文	-2503
烈的	-2504
种类	-2505
纤维	-2506
经过	-2507
自身	-2508
蘑菇	-2509
那个	-2510
铁塔	-2511
面积	-2512
▁cl	-2513
▁工作	-2514
他们在	-2515
写一篇	-2516
和技术	-2517
或其他	-2518
或短语	-2519
的列表	-2520
纽约市	-2521
▁art	-2522
▁请提供	-2523
谢谢你的	-2524
这些问题	-2525
▁文本内容	-2526
可能会导致	-2527
▁给定一篇文章	-2528
elligence	-2529
一项	-2530
体的	-2531
你对	-2532
古老	-2533
大气	-2534
恢复	-2535
探险	-2536
文明	-2537
涵盖	-2538
监测	-2539
衣服	-2540
观看	-2541
身份	-2542
这家	-2543
邀请	-2544
错别	-2545
now	-2546
▁AI	-2547
▁加入	-2548
知识和	-2549
这样的	-2550
arah	-2551
eter	-2552
▁cat	-2553
完成任务	-2554
apple	-2555
海平面上升	-2556
eg	-2557
so	-2558
到的	-2559
刺激	-2560
化合	-2561
招聘	-2562
构建	-2563
波特	-2564
消耗	-2565
英国	-2566
面团	-2567
10,	-2568
▁30	-2569
▁汤姆	-2570
个性化	-2571
准确性	-2572
很好的	-2573
美味的	-2574
错别字	-2575
ance	-2576
ical	-2577
研究表明	-2578
▁根据这个	-2579
?"	-2580
传播	-2581
免疫	-2582
公里	-2583
力于	-2584
升序	-2585
变成	-2586
很快	-2587
推理	-2588
机制	-2589
查看	-2590
水和	-2591
潜力	-2592
电池	-2593
秋天	-2594
▁好的	-2595
为我们	-2596
任务中	-2597
化合物	-2598
▁res	-2599
▁给一段	-2600
提供一些	-2601
文本进行	-2602
range	-2603
▁This	-2604
▁this	-2605
一位年轻的	-2606
旅游目的地	-2607
越来越多的	-2608
▁当	-2609
▁是	-2610
之外	-2611
但他	-2612
出行	-2613
友好	-2614
存储	-2615
打算	-2616
李四	-2617
火灾	-2618
特殊	-2619
狮子	-2620
确实	-2621
穿越	-2622
结论	-2623
▁为了	-2624
▁答案	-2625
一定的	-2626
出现的	-2627
工作的	-2628
市场上	-2629
并使用	-2630
我正在	-2631
所需的	-2632
来实现	-2633
的公司	-2634
的生活	-2635
管理和	-2636
致力于	-2637
非常好	-2638
1000	-2639
听起来很	-2640
▁sent	-2641
))	-2642
gh	-2643
▁王	-2644
人士	-2645
以其	-2646
公式	-2647
内部	-2648
减缓	-2649
区域	-2650
午餐	-2651
合并	-2652
和高	-2653
慢慢	-2654
投入	-2655
特色	-2656
精力	-2657
维持	-2658
这款	-2659
远程	-2660
ict	-2661
way	-2662
▁产品	-2663
一个人	-2664
信息和	-2665
分析和	-2666
压力和	-2667
取得了	-2668
指定的	-2669
程序员	-2670
类型的	-2671
ound	-2672
▁how	-2673
出现次数	-2674
▁comm	-2675
▁给一段文本内容	-2676
文本内容回答问题	-2677
▁根据这个文本内容回答问题	-2678
':	-2679
sh	-2680
事项	-2681
似乎	-2682
利益	-2683
大型	-2684
天数	-2685
收集	-2686
更改	-2687
疫情	-2688
肉类	-2689
记忆	-2690
锅中	-2691
ake	-2692
ory	-2693
ost	-2694
▁15	-2695
▁se	-2696
了他的	-2697
充足的	-2698
导致了	-2699
是如何	-2700
氧化碳	-2701
Jack	-2702
▁bir	-2703
▁inc	-2704
其中包含	-2705
工作效率	-2706
棕色狐狸	-2707
▁对话内容	-2708
▁给出以下	-2709
▁today	-2710
▁给定一个句子	-2711
▁根据以上这段对话内容回答	-2712
ip	-2713
上下	-2714
克斯	-2715
原始	-2716
小的	-2717
引擎	-2718
手段	-2719
放弃	-2720
有机	-2721
有氧	-2722
样的	-2723
熊猫	-2724
芝士	-2725
设定	-2726
超出	-2727
闻名	-2728
▁步骤	-2729
出色的	-2730
和朋友	-2731
接下来	-2732
来提高	-2733
物联网	-2734
被认为	-2735
ines	-2736
lish	-2737
ther	-2738
我们公司	-2739
故事情节	-2740
文本分类	-2741
生成一段	-2742
西班牙语	-2743
riend	-2744
气候变化的	-2745
,2	-2746
ax	-2747
▁\	-2748
也很	-2749
优惠	-2750
你会	-2751
冰淇	-2752
印象	-2753
含有	-2754
大战	-2755
恐怖	-2756
更有	-2757
杰克	-2758
的好	-2759
皮肤	-2760
色彩	-2761
艾米	-2762
路线	-2763
面条	-2764
验证	-2765
hen	-2766
▁ac	-2767
▁姓名	-2768
▁输入	-2769
以帮助	-2770
健身房	-2771
冰淇淋	-2772
可以为	-2773
我没有	-2774
是一项	-2775
的数据	-2776
的未来	-2777
的结果	-2778
黑胡椒	-2779
ions	-2780
▁100	-2781
两个日期	-2782
二氧化碳	-2783
化石燃料	-2784
竞争对手	-2785
▁trans	-2786
越来越多的人	-2787
▁烤	-2788
之后	-2789
偶数	-2790
关闭	-2791
加速	-2792
参考	-2793
回归	-2794
实验	-2795
引发	-2796
忠诚	-2797
性格	-2798
播放	-2799
星际	-2800
最好	-2801
用来	-2802
突出	-2803
第三	-2804
防止	-2805
陌生	-2806
uct	-2807
vel	-2808
▁In	-2809
▁减少	-2810
主题和	-2811
和应用	-2812
咖啡店	-2813
学习新	-2814
已成为	-2815
支持和	-2816
改变了	-2817
数字化	-2818
是通过	-2819
的基础	-2820
2019	-2821
CGCG	-2822
ange	-2823
angu	-2824
▁def	-2825
团队合作	-2826
电影评论	-2827
电话号码	-2828
▁总的来说	-2829
▁生成一篇	-2830
深远的影响	-2831
人工智能技术的	-2832
90	-2833
▁张	-2834
你在	-2835
凡达	-2836
十年	-2837
发送	-2838
和水	-2839
外观	-2840
居民	-2841
普通	-2842
替代	-2843
热量	-2844
玩耍	-2845
笔记	-2846
给予	-2847
aut	-2848
oun	-2849
▁制定	-2850
写一个	-2851
讨论了	-2852
都可以	-2853
阿凡达	-2854
面临着	-2855
领域中	-2856
今天天气	-2857
其中包括	-2858
▁play	-2859
以下是一些	-2860
▁根据对话内容回答	-2861
▁根据对话内容回答这个问题	-2862
2.	-2863
67	-2864
na	-2865
▁不	-2866
▁要	-2867
▁让	-2868
中性	-2869
主语	-2870
儿童	-2871
出发	-2872
出生	-2873
列举	-2874
叙述	-2875
并与	-2876
成果	-2877
指出	-2878
燕麦	-2879
理论	-2880
碳水	-2881
罗马	-2882
节约	-2883
血压	-2884
见到	-2885
认知	-2886
语句	-2887
遵循	-2888
ans	-2889
str	-2890
▁Wh	-2891
▁我想	-2892
你们的	-2893
和健康	-2894
在家里	-2895
新产品	-2896
最近的	-2897
环境的	-2898
的摄入	-2899
的过程	-2900
相似度	-2901
能力和	-2902
▁Eng	-2903
▁告诉我	-2904
现代社会	-2905
虚拟现实	-2906
这个项目	-2907
▁电影名称	-2908
两人的对话内容	-2909
这段对话内容回答问题	-2910
▁以下是一段两人的对话内容	-2911
▁根据这段对话内容回答问题	-2912
":	-2913
8.	-2914
BC	-2915
In	-2916
ep	-2917
▁那	-2918
》,	-2919
人民	-2920
件人	-2921
取代	-2922
只要	-2923
各地	-2924
否则	-2925
均衡	-2926
大约	-2927
安静	-2928
展开	-2929
意味	-2930
新型	-2931
更快	-2932
李华	-2933
球员	-2934
相反	-2935
红色	-2936
萝卜	-2937
请求	-2938
调研	-2939
谷歌	-2940
贵的	-2941
辅助	-2942
野生	-2943
革命	-2944
ere	-2945
▁We	-2946
▁公司	-2947
▁如果	-2948
▁约翰	-2949
个人的	-2950
句子中	-2951
和行为	-2952
技巧和	-2953
更准确	-2954
番茄酱	-2955
的任务	-2956
第一个	-2957
表达了	-2958
被广泛	-2959
计划和	-2960
cess	-2961
▁our	-2962
因为它们	-2963
对我们的	-2964
新闻标题	-2965
重新润色	-2966
▁2022	-2967
▁list	-2968
▁love	-2969
按字母顺序	-2970
更好地了解	-2971
echnolog	-2972
-2	-2973
xx	-2974
从中	-2975
修复	-2976
偏好	-2977
共享	-2978
变革	-2979
呈现	-2980
回复	-2981
土豆	-2982
失业	-2983
形的	-2984
我不	-2985
扮演	-2986
标记	-2987
概括	-2988
正传	-2989
消息	-2990
激励	-2991
王星	-2992
电动	-2993
菲尔	-2994
表格	-2995
车辆	-2996
马克	-2997
鸡胸	-2998
ane	-2999
ich	-3000
oog	-3001
ppy	-3002
ven	-3003
▁->	-3004
▁==	-3005
▁su	-3006
▁选择	-3007
▁通过	-3008
上下文	-3009
不仅仅	-3010
对人类	-3011
时间的	-3012
的短文	-3013
这是一	-3014
rect	-3015
▁How	-3016
你有什么	-3017
至关重要	-3018
碳水化合物	-3019
需要更多的	-3020
一件	-3021
不良	-3022
加上	-3023
尽力	-3024
屏幕	-3025
差异	-3026
干扰	-3027
心脏	-3028
撒上	-3029
教练	-3030
有点	-3031
橙子	-3032
烤盘	-3033
版本	-3034
留下	-3035
的狗	-3036
真是	-3037
给你	-3038
菜品	-3039
菜肴	-3040
读书	-3041
里的	-3042
重点	-3043
XXX	-3044
mer	-3045
一起去	-3046
并进行	-3047
敏捷的	-3048
更容易	-3049
特别是	-3050
的描述	-3051
的标题	-3052
蔬菜和	-3053
ject	-3054
orld	-3055
▁all	-3056
不要超出	-3057
为您提供	-3058
生成一份	-3059
阿甘正传	-3060
oogle	-3061
▁more	-3062
▁编写一个	-3063
my	-3064
ne	-3065
一切	-3066
专家	-3067
互相	-3068
失落	-3069
实习	-3070
新兴	-3071
最高	-3072
每次	-3073
永远	-3074
海边	-3075
盐和	-3076
米饭	-3077
美景	-3078
美的	-3079
起源	-3080
难忘	-3081
频繁	-3082
fer	-3083
ree	-3084
▁la	-3085
▁回答	-3086
一系列	-3087
个单词	-3088
云计算	-3089
和管理	-3090
安全和	-3091
提高了	-3092
无论是	-3093
有哪些	-3094
造成了	-3095
鸡胸肉	-3096
Java	-3097
ated	-3098
elle	-3099
odel	-3100
▁arr	-3101
▁sum	-3102
一段文字	-3103
句子中的	-3104
新闻文章	-3105
时间管理	-3106
科幻小说	-3107
ather	-3108
▁lear	-3109
▁range	-3110
文本内容范围	-3111
答案不要超出	-3112
▁基于以上这段	-3113
文本内容回答这个问题	-3114
答案不要超出文本内容范围	-3115
▁基于以上这段文本内容回答	-3116
▁根据以上文本内容回答这个问题	-3117
/2	-3118
9.	-3119
ef	-3120
ft	-3121
不再	-3122
原理	-3123
和小	-3124
哲学	-3125
图书	-3126
彼此	-3127
性别	-3128
未知	-3129
案件	-3130
正常	-3131
渠道	-3132
生涯	-3133
疲劳	-3134
秘密	-3135
终于	-3136
美妙	-3137
节目	-3138
角度	-3139
运用	-3140
运行	-3141
预订	-3142
黑暗	-3143
ien	-3144
▁so	-3145
▁人物	-3146
▁此外	-3147
意味着	-3148
我觉得	-3149
自然的	-3150
▁根据所	-3151
了自己的	-3152
我听说你	-3153
生活质量	-3154
英文单词	-3155
▁机器学习	-3156
保护我们的	-3157
提高自己的	-3158
计算机视觉	-3159
下面这段文章	-3160
敏捷的棕色狐狸	-3161
▁sentence	-3162
!"	-3163
"、	-3164
3.	-3165
ak	-3166
te	-3167
一遍	-3168
三角	-3169
不少	-3170
两种	-3171
伙伴	-3172
但也	-3173
决于	-3174
利润	-3175
匹配	-3176
听到	-3177
和你	-3178
回忆	-3179
场合	-3180
场所	-3181
子和	-3182
就像	-3183
总统	-3184
战略	-3185
摄影	-3186
教学	-3187
春天	-3188
更高	-3189
期望	-3190
死亡	-3191
热爱	-3192
观的	-3193
费用	-3194
过于	-3195
过的	-3196
重大	-3197
陈述	-3198
页面	-3199
:00	-3200
IMD	-3201
▁人类	-3202
▁可以	-3203
▁总结	-3204
▁李明	-3205
中国的	-3206
发展的	-3207
取决于	-3208
和学习	-3209
多样性	-3210
尤其是	-3211
怎么样	-3212
新鲜的	-3213
更大的	-3214
比赛中	-3215
深呼吸	-3216
的原因	-3217
的投资	-3218
的语言	-3219
竞争力	-3220
让人们	-3221
音乐家	-3222
▁str	-3223
兴趣爱好	-3224
数学问题	-3225
电子商务	-3226
菲尔铁塔	-3227
需要考虑	-3228
▁time	-3229
领域的应用	-3230
▁帮我重新润色	-3231
▁帮我重新润色下面这段文章	-3232
rt	-3233
▁`	-3234
▁周	-3235
▁您	-3236
中间	-3237
乐趣	-3238
人体	-3239
人脸	-3240
你是	-3241
分成	-3242
升高	-3243
协议	-3244
口语	-3245
坚果	-3246
室内	-3247
帝国	-3248
形状	-3249
我将	-3250
接触	-3251
无限	-3252
时光	-3253
时刻	-3254
来到	-3255
步行	-3256
漫步	-3257
激发	-3258
牛肉	-3259
群体	-3260
货币	-3261
超市	-3262
遗产	-3263
释放	-3264
里面	-3265
附近	-3266
香草	-3267
123	-3268
▁up	-3269
▁城市	-3270
▁第二	-3271
▁虽然	-3272
▁谢谢	-3273
▁重写	-3274
另一种	-3275
和活动	-3276
在过去	-3277
大规模	-3278
并保持	-3279
探讨了	-3280
是人类	-3281
胡萝卜	-3282
▁his	-3283
▁out	-3284
▁尊敬的	-3285
不断进步	-3286
中的应用	-3287
可以选择	-3288
情感分类	-3289
数据进行	-3290
文本中的	-3291
机器翻译	-3292
▁Lucy	-3293
ificial	-3294
▁friend	-3295
▁给定一组数字	-3296
一道	-3297
下降	-3298
两人	-3299
宁静	-3300
富含	-3301
对方	-3302
干旱	-3303
平静	-3304
战斗	-3305
欧洲	-3306
生长	-3307
综合	-3308
还能	-3309
通知	-3310
"、"	-3311
ely	-3312
llo	-3313
ons	-3314
▁ro	-3315
▁下面	-3316
▁制作	-3317
并没有	-3318
新技术	-3319
是因为	-3320
更高的	-3321
的机会	-3322
的选择	-3323
碳排放	-3324
舒适的	-3325
艺术家	-3326
要注意	-3327
详细的	-3328
avid	-3329
可以用于	-3330
后的句子	-3331
后的文本	-3332
极端天气	-3333
的情况下	-3334
▁stud	-3335
日常生活中	-3336
翻译成英文	-3337
讲述了一个	-3338
ations	-3339
▁their	-3340
anguage	-3341
▁重写下面这段文本	-3342
eb	-3343
▁Q	-3344
一年	-3345
一般	-3346
人际	-3347
伦理	-3348
出的	-3349
化和	-3350
名单	-3351
向量	-3352
吸烟	-3353
回到	-3354
地上	-3355
它是	-3356
宣布	-3357
开心	-3358
成立	-3359
扩展	-3360
插入	-3361
明显	-3362
晴朗	-3363
有时	-3364
片段	-3365
的值	-3366
网上	-3367
能否	-3368
赢得	-3369
量和	-3370
预计	-3371
ile	-3372
▁因此	-3373
以提高	-3374
会导致	-3375
办公室	-3376
古老的	-3377
地球的	-3378
文化的	-3379
的服务	-3380
目标和	-3381
▁des	-3382
▁est	-3383
▁为以下	-3384
一个新的	-3385
搜索引擎	-3386
数字列表	-3387
需要进行	-3388
thday	-3389
velop	-3390
▁need	-3391
▁some	-3392
你最喜欢的	-3393
我们的产品	-3394
▁给定一段文本	-3395
▁English	-3396
")	-3397
28	-3398
31	-3399
Th	-3400
下周	-3401
也将	-3402
们的	-3403
供应	-3404
内的	-3405
取出	-3406
唯一	-3407
始终	-3408
客人	-3409
富有	-3410
很难	-3411
明了	-3412
景色	-3413
树木	-3414
水分	-3415
消失	-3416
照顾	-3417
理想	-3418
礼物	-3419
聊天	-3420
舞蹈	-3421
英雄	-3422
逗号	-3423
钢琴	-3424
预热	-3425
ork	-3426
▁sk	-3427
▁地点	-3428
▁尽管	-3429
▁要求	-3430
值得一	-3431
出现了	-3432
和数据	-3433
在那里	-3434
地区的	-3435
市场的	-3436
并确保	-3437
我希望	-3438
有时候	-3439
特定的	-3440
真正的	-3441
2020	-3442
sort	-3443
一组数字	-3444
帮助我们	-3445
当然可以	-3446
我们必须	-3447
户外活动	-3448
提高生产	-3449
日常生活	-3450
环境问题	-3451
:2022	-3452
ating	-3453
▁2021	-3454
▁Jack	-3455
▁also	-3456
变得越来越	-3457
▁inter	-3458
2)	-3459
IT	-3460
NA	-3461
NL	-3462
▁z	-3463
不起	-3464
之旅	-3465
仔细	-3466
以来	-3467
伦敦	-3468
信号	-3469
加剧	-3470
厘米	-3471
口号	-3472
同样	-3473
基金	-3474
失败	-3475
定位	-3476
少年	-3477
层次	-3478
工资	-3479
引人	-3480
毕业	-3481
煮熟	-3482
狗的	-3483
男人	-3484
神奇	-3485
福利	-3486
称为	-3487
职场	-3488
规范	-3489
遵守	-3490
都在	-3491
飞行	-3492
饮用	-3493
its	-3494
▁建议	-3495
▁这些	-3496
任务的	-3497
其中最	-3498
图书馆	-3499
很抱歉	-3500
文章的	-3501
歌曲的	-3502
的基本	-3503
矿物质	-3504
aime	-3505
bbbb	-3506
ener	-3507
ient	-3508
人类智能	-3509
商业计划	-3510
垃圾邮件	-3511
有氧运动	-3512
环境污染	-3513
被认为是	-3514
▁Alex	-3515
▁从给定的	-3516
▁可以使用	-3517
▁给我一个	-3518
▁编辑以下	-3519
我们公司的	-3520
▁great	-3521
电子邮件地址	-3522
▁string	-3523
▁根据给定的电影	-3524
▁birthday	-3525
70	-3526
Ch	-3527
不太	-3528
于是	-3529
仿佛	-3530
冬季	-3531
减肥	-3532
动画	-3533
厘岛	-3534
另一	-3535
司机	-3536
夏威	-3537
宝藏	-3538
寒冷	-3539
幽默	-3540
强度	-3541
显著	-3542
清理	-3543
紧急	-3544
联盟	-3545
莉莉	-3546
行程	-3547
跳过	-3548
追逐	-3549
配料	-3550
野餐	-3551
150	-3552
ank	-3553
ces	-3554
get	-3555
▁李四	-3556
和提高	-3557
夏威夷	-3558
巴厘岛	-3559
并列出	-3560
我不能	-3561
水果和	-3562
生命的	-3563
而闻名	-3564
here	-3565
▁cor	-3566
▁dat	-3567
▁had	-3568
▁lif	-3569
快速发展	-3570
操作系统	-3571
智能手表	-3572
的过程中	-3573
职业生涯	-3574
软件开发	-3575
▁cons	-3576
▁know	-3577
▁such	-3578
▁work	-3579
▁输出结果	-3580
▁这部电影	-3581
诊断和治疗	-3582
______	-3583
▁apple	-3584
▁every	-3585
▁人	-3586
个月	-3587
举行	-3588
产业	-3589
从小	-3590
位数	-3591
冲突	-3592
女士	-3593
影像	-3594
情境	-3595
描绘	-3596
收益	-3597
日益	-3598
海浪	-3599
火星	-3600
熟悉	-3601
犯罪	-3602
轻轻	-3603
▁em	-3604
▁歌曲	-3605
了一家	-3606
企业的	-3607
句子的	-3608
并根据	-3609
是美国	-3610
有意义	-3611
环保的	-3612
的同时	-3613
等技术	-3614
系统的	-3615
表达式	-3616
该公司	-3617
长度为	-3618
▁请根据	-3619
人脸识别	-3620
叙述一遍	-3621
在公园里	-3622
模型进行	-3623
野生动物	-3624
▁全球变暖	-3625
▁气候变化	-3626
下面的句子	-3627
人们的生活	-3628
人工智能和	-3629
更好地理解	-3630
......	-3631
▁there	-3632
重新叙述一遍	-3633
不可或缺的一部分	-3634
▁基于以上这段文本	-3635
▁technolog	-3636
▁intelligence	-3637
%。	-3638
4.	-3639
ER	-3640
与该	-3641
主动	-3642
休闲	-3643
出去	-3644
包装	-3645
卓越	-3646
受众	-3647
同学	-3648
大大	-3649
婚礼	-3650
字塔	-3651
实用	-3652
将在	-3653
尼亚	-3654
并对	-3655
强烈	-3656
忘记	-3657
惊喜	-3658
打造	-3659
摄氏	-3660
旅程	-3661
有害	-3662
玩具	-3663
申请	-3664
男子	-3665
痛苦	-3666
考试	-3667
节省	-3668
语态	-3669
谓语	-3670
难题	-3671
old	-3672
ond	-3673
ood	-3674
▁25	-3675
▁["	-3676
兴趣和	-3677
和创新	-3678
展示了	-3679
广泛的	-3680
感谢您	-3681
收件人	-3682
的关系	-3683
的普及	-3684
的研究	-3685
短故事	-3686
谢谢你	-3687
质量和	-3688
这两个	-3689
金字塔	-3690
alth	-3691
vers	-3692
中文翻译	-3693
天气预报	-3694
环保意识	-3695
简要介绍	-3696
▁will	-3697
▁对给定的	-3698
保持健康的	-3699
lation	-3700
▁给你一段文本	-3701
人工智能的发展	-3702
语法和拼写错误	-3703
1)	-3704
2。	-3705
5-	-3706
严格	-3707
伯特	-3708
但在	-3709
保留	-3710
信心	-3711
前途	-3712
厨房	-3713
多数	-3714
拓展	-3715
指标	-3716
更为	-3717
航空	-3718
英寸	-3719
让它	-3720
豆腐	-3721
账户	-3722
辣椒	-3723
eng	-3724
igh	-3725
isc	-3726
▁19	-3727
▁co	-3728
▁数据	-3729
▁翻译	-3730
▁除了	-3731
一些人	-3732
与其他	-3733
严重的	-3734
他开始	-3735
可以使	-3736
和他的	-3737
或服务	-3738
时间来	-3739
是否有	-3740
问题和	-3741
首字母	-3742
ings	-3743
▁app	-3744
▁mat	-3745
不仅可以	-3746
成为一名	-3747
星球大战	-3748
用户体验	-3749
英文文章	-3750
▁comp	-3751
▁根据用户	-3752
之间的关系	-3753
广泛的应用	-3754
banana	-3755
▁develop	-3756
▁给你一段文本如下	-3757
-3	-3758
▁海	-3759
三种	-3760
上了	-3761
上午	-3762
上所	-3763
冲浪	-3764
几年	-3765
分布	-3766
即使	-3767
向您	-3768
啤酒	-3769
土壤	-3770
在这	-3771
地位	-3772
坐在	-3773
天体	-3774
安装	-3775
寿命	-3776
小王	-3777
工艺	-3778
心灵	-3779
抑郁	-3780
擅长	-3781
日程	-3782
柠檬	-3783
比特	-3784
沮丧	-3785
河流	-3786
灭绝	-3787
燃烧	-3788
男性	-3789
画面	-3790
病毒	-3791
立即	-3792
等于	-3793
精准	-3794
素质	-3795
职责	-3796
聚会	-3797
西红	-3798
订单	-3799
让他	-3800
配合	-3801
飞机	-3802
黑色	-3803
199	-3804
ens	-3805
▁fe	-3806
▁原文	-3807
▁避免	-3808
▁需要	-3809
下面的	-3810
主题的	-3811
以避免	-3812
伟大的	-3813
充满活	-3814
分类为	-3815
地了解	-3816
就可以	-3817
帮助您	-3818
建筑物	-3819
最大公	-3820
涉及到	-3821
混合物	-3822
烤箱中	-3823
电视剧	-3824
的世界	-3825
的数量	-3826
社会的	-3827
行业的	-3828
表现出	-3829
ates	-3830
ious	-3831
▁You	-3832
▁这是一	-3833
了一系列	-3834
人们可以	-3835
健身计划	-3836
市场调研	-3837
电动汽车	-3838
素食主义	-3839
非常喜欢	-3840
▁请告诉我	-3841
保持良好的	-3842
全球范围内	-3843
我无法提供	-3844
▁编辑以下句子	-3845
计算它们之间的	-3846
人心	-3847
传达	-3848
冬天	-3849
分数	-3850
协调	-3851
博客	-3852
叫做	-3853
合同	-3854
名和	-3855
和谐	-3856
器和	-3857
客气	-3858
建造	-3859
悠久	-3860
感和	-3861
感染	-3862
我看	-3863
拖延	-3864
提前	-3865
普遍	-3866
沉浸	-3867
清楚	-3868
火车	-3869
现场	-3870
理念	-3871
白色	-3872
相比	-3873
确认	-3874
约为	-3875
而言	-3876
节能	-3877
覆盖	-3878
见面	-3879
誉为	-3880
语气	-3881
谨慎	-3882
跟踪	-3883
运算	-3884
这位	-3885
连贯	-3886
ild	-3887
ose	-3888
▁任务	-3889
▁如何	-3890
▁我的	-3891
▁推荐	-3892
▁用户	-3893
▁目标	-3894
人们对	-3895
以保持	-3896
企业和	-3897
先进的	-3898
功能和	-3899
和放松	-3900
大数据	-3901
学习的	-3902
安全性	-3903
我们还	-3904
我最近	-3905
提出了	-3906
是关于	-3907
是否为	-3908
更深入	-3909
沟通和	-3910
的咖啡	-3911
真的很	-3912
笔记本	-3913
能够在	-3914
西红柿	-3915
运动员	-3916
近义词	-3917
音乐会	-3918
Lucy	-3919
iful	-3920
▁She	-3921
▁请描述	-3922
感谢您的	-3923
易于理解	-3924
的关键词	-3925
相关信息	-3926
Apple	-3927
Emily	-3928
▁been	-3929
▁into	-3930
▁park	-3931
并输出结果	-3932
提供更好的	-3933
是世界上最	-3934
最受欢迎的	-3935
▁World	-3936
我们可以通过	-3937
▁总结下面这段文本	-3938
66	-3939
75	-3940
80	-3941
ms	-3942
pe	-3943
▁X	-3944
▁多	-3945
▁此	-3946
▁红	-3947
一张	-3948
乘坐	-3949
优质	-3950
伤害	-3951
作业	-3952
免费	-3953
公众	-3954
参数	-3955
只能	-3956
和不	-3957
善于	-3958
土地	-3959
地理	-3960
奥斯	-3961
如今	-3962
学术	-3963
学者	-3964
巨大	-3965
干净	-3966
往往	-3967
惊悚	-3968
意外	-3969
感情	-3970
担忧	-3971
损失	-3972
故宫	-3973
有所	-3974
机场	-3975
来的	-3976
海鲜	-3977
电商	-3978
真好	-3979
突破	-3980
经营	-3981
而是	-3982
良好	-3983
证明	-3984
质数	-3985
这只	-3986
遗传	-3987
里斯	-3988
ade	-3989
rit	-3990
the	-3991
▁sa	-3992
▁北京	-3993
▁您好	-3994
世界的	-3995
你觉得	-3996
做什么	-3997
关注和	-3998
准备好	-3999
和资源	-4000
太好了	-4001
好朋友	-4002
将成为	-4003
并不是	-4004
并提高	-4005
政府和	-4006
文章中	-4007
更高效	-4008
测试集	-4009
蓝色的	-4010
设计和	-4011
需求和	-4012
▁dif	-4013
▁mov	-4014
▁什么是	-4015
▁写一篇	-4016
减轻压力	-4017
创造一个	-4018
帮助人们	-4019
总结上面	-4020
搅拌均匀	-4021
科学家们	-4022
编写一篇	-4023
营销策略	-4024
采取措施	-4025
iness	-4026
▁Lisa	-4027
▁grou	-4028
▁sign	-4029
▁very	-4030
▁Sarah	-4031
▁other	-4032
可以帮助人们	-4033
example	-4034
▁health	-4035
▁numbers	-4036
总结上面这段文本	-4037
:$	-4038
:5	-4039
Sp	-4040
▁爱	-4041
为你	-4042
事务	-4043
会对	-4044
初创	-4045
制成	-4046
卫星	-4047
回报	-4048
地铁	-4049
夏日	-4050
小猫	-4051
岁的	-4052
年人	-4053
废物	-4054
座位	-4055
懒狗	-4056
成分	-4057
摇滚	-4058
支出	-4059
文献	-4060
柔软	-4061
标注	-4062
毛发	-4063
求职	-4064
派对	-4065
游览	-4066
票房	-4067
繁荣	-4068
结局	-4069
膳食	-4070
航班	-4071
规定	-4072
财富	-4073
身高	-4074
边的	-4075
长城	-4076
难度	-4077
领袖	-4078
首都	-4079
高级	-4080
NLP	-4081
alk	-4082
dog	-4083
ert	-4084
▁一篇	-4085
▁未来	-4086
上所述	-4087
亿美元	-4088
今天的	-4089
发现了	-4090
可以是	-4091
可爱的	-4092
和分析	-4093
客户的	-4094
心理学	-4095
拼写和	-4096
数据库	-4097
爱好者	-4098
的含义	-4099
的小说	-4100
被誉为	-4101
都需要	-4102
ames	-4103
▁20,	-4104
▁200	-4105
▁she	-4106
健康问题	-4107
包括以下	-4108
即可享用	-4109
在家工作	-4110
广泛应用	-4111
排序后的	-4112
数据隐私	-4113
生成一首	-4114
综上所述	-4115
请告诉我	-4116
选择适合	-4117
需要注意	-4118
▁went	-4119
▁what	-4120
计算机系统	-4121
软件工程师	-4122
string	-4123
最喜欢的电影	-4124
"]	-4125
);	-4126
6.	-4127
举办	-4128
乔布	-4129
做的	-4130
加热	-4131
双方	-4132
命运	-4133
失望	-4134
好奇	-4135
害怕	-4136
小鸟	-4137
总之	-4138
恐龙	-4139
揭示	-4140
改写	-4141
文件	-4142
时的	-4143
明治	-4144
服装	-4145
本地	-4146
法规	-4147
洪水	-4148
用品	-4149
细胞	-4150
耐心	-4151
路上	-4152
这首	-4153
黄瓜	-4154
黑客	-4155
iel	-4156
iet	-4157
iss	-4158
ors	-4159
▁pe	-4160
▁sc	-4161
▁te	-4162
▁教育	-4163
一定会	-4164
万美元	-4165
乔布斯	-4166
他决定	-4167
信息的	-4168
克里斯	-4169
全新的	-4170
帮助你	-4171
按升序	-4172
数据中	-4173
服务员	-4174
极大的	-4175
艺术品	-4176
金黄色	-4177
餐厅的	-4178
ears	-4179
itle	-4180
lear	-4181
usic	-4182
▁col	-4183
▁one	-4184
其中一个	-4185
提高效率	-4186
正在寻找	-4187
科幻电影	-4188
语音助手	-4189
▁这是一篇	-4190
人工智能在	-4191
Google	-4192
模型生成一个	-4193
autiful	-4194
ph	-4195
为其	-4196
也不	-4197
也许	-4198
事故	-4199
创始	-4200
别人	-4201
加工	-4202
北极	-4203
华为	-4204
协助	-4205
合适	-4206
名叫	-4207
困境	-4208
坚定	-4209
复仇	-4210
学科	-4211
它将	-4212
实体	-4213
家具	-4214
就会	-4215
尿病	-4216
岛屿	-4217
庆祝	-4218
引力	-4219
强的	-4220
彼得	-4221
志愿	-4222
恐惧	-4223
感知	-4224
抓住	-4225
担任	-4226
挫折	-4227
推进	-4228
支撑	-4229
术语	-4230
歌手	-4231
正式	-4232
比萨	-4233
灯光	-4234
独自	-4235
珍惜	-4236
睡觉	-4237
精彩	-4238
给了	-4239
蝴蝶	-4240
认可	-4241
请教	-4242
都能	-4243
ABC	-4244
erc	-4245
▁1:	-4246
▁2:	-4247
▁Sp	-4248
▁bu	-4249
▁ke	-4250
▁在此	-4251
三明治	-4252
不需要	-4253
专业的	-4254
也存在	-4255
可能性	-4256
员工的	-4257
展现了	-4258
引起的	-4259
激烈的	-4260
环境和	-4261
生产力	-4262
疾病的	-4263
的文化	-4264
糖尿病	-4265
营养素	-4266
该电影	-4267
转换成	-4268
重要性	-4269
高质量	-4270
▁ind	-4271
▁sun	-4272
▁在这个	-4273
▁字符串	-4274
介绍一下	-4275
我很高兴	-4276
放松身心	-4277
消费者的	-4278
电视节目	-4279
自然资源	-4280
选择一个	-4281
ption	-4282
▁book	-4283
▁many	-4284
▁prov	-4285
生成一个包含	-4286
自动驾驶汽车	-4287
▁iPhone	-4288
翻译成西班牙语	-4289
(2	-4290
24	-4291
33	-4292
7.	-4293
以前	-4294
你想	-4295
便捷	-4296
倾向	-4297
全麦	-4298
农民	-4299
出版	-4300
卢浮	-4301
危害	-4302
吸收	-4303
哑铃	-4304
商店	-4305
喜爱	-4306
备受	-4307
奇怪	-4308
客服	-4309
岗位	-4310
很大	-4311
微笑	-4312
德国	-4313
我还	-4314
房屋	-4315
才华	-4316
执导	-4317
数组	-4318
旅途	-4319
早晨	-4320
栖息	-4321
案例	-4322
熟练	-4323
父母	-4324
物体	-4325
看着	-4326
短信	-4327
调料	-4328
追踪	-4329
逐步	-4330
问句	-4331
顺利	-4332
10-	-4333
cat	-4334
cho	-4335
ire	-4336
que	-4337
▁5]	-4338
▁但是	-4339
▁李华	-4340
▁阅读	-4341
也非常	-4342
卢浮宫	-4343
和环境	-4344
市中心	-4345
打篮球	-4346
是一款	-4347
生物学	-4348
的价格	-4349
的几个	-4350
的所有	-4351
的数字	-4352
的餐厅	-4353
组成的	-4354
经典的	-4355
给出的	-4356
训练集	-4357
随机数	-4358
atch	-4359
jour	-4360
ramm	-4361
ures	-4362
▁15,	-4363
▁bus	-4364
▁exp	-4365
▁its	-4366
▁per	-4367
▁way	-4368
你的公司	-4369
历史事件	-4370
可以提供	-4371
我们已经	-4372
的同义词	-4373
ition	-4374
▁根据输入	-4375
埃菲尔铁塔	-4376
iPhone	-4377
▁going	-4378
▁commun	-4379
▁result	-4380
▁language	-4381
89	-4382
SA	-4383
ny	-4384
ox	-4385
ug	-4386
一致	-4387
与您	-4388
传递	-4389
假期	-4390
区别	-4391
历程	-4392
厚的	-4393
大蒜	-4394
奶油	-4395
姆斯	-4396
定制	-4397
家族	-4398
小李	-4399
居住	-4400
带有	-4401
影评	-4402
忙碌	-4403
数百	-4404
无需	-4405
早期	-4406
是谁	-4407
碗中	-4408
积累	-4409
结尾	-4410
芯片	-4411
补充	-4412
视为	-4413
警察	-4414
这组	-4415
马尔	-4416
鱼类	-4417
...	-4418
:10	-4419
arr	-4420
ask	-4421
esp	-4422
ics	-4423
ont	-4424
ott	-4425
tha	-4426
▁sm	-4427
▁帮助	-4428
▁找到	-4429
一部分	-4430
两个人	-4431
令人惊	-4432
创新和	-4433
受到了	-4434
可行的	-4435
和一些	-4436
和目标	-4437
和预测	-4438
将继续	-4439
强调了	-4440
患者的	-4441
我们在	-4442
投资者	-4443
方程式	-4444
游戏的	-4445
漂亮的	-4446
生产和	-4447
的动物	-4448
的感觉	-4449
的行星	-4450
的饮食	-4451
经验的	-4452
给我们	-4453
美食和	-4454
通常是	-4455
高血压	-4456
lect	-4457
▁太阳系	-4458
以及如何	-4459
作为一名	-4460
保护地球	-4461
家庭成员	-4462
应用场景	-4463
最著名的	-4464
模型生成	-4465
苹果公司	-4466
count	-4467
ester	-4468
inese	-4469
▁描述一个	-4470
▁文章内容	-4471
▁综上所述	-4472
带来更多的	-4473
计算机程序	-4474
▁model	-4475
▁start	-4476
▁which	-4477
numbers	-4478
人工智能在医疗	-4479
▁weather	-4480
减少温室气体排放	-4481
)-	-4482
-0	-4483
AP	-4484
EO	-4485
ma	-4486
上班	-4487
与其	-4488
乐意	-4489
乘客	-4490
代谢	-4491
公正	-4492
养成	-4493
华丽	-4494
各自	-4495
塑造	-4496
天然	-4497
季度	-4498
学位	-4499
心中	-4500
怎样	-4501
恒星	-4502
您在	-4503
悲伤	-4504
想去	-4505
救援	-4506
散文	-4507
斯坦	-4508
易读	-4509
气象	-4510
生动	-4511
生理	-4512
用途	-4513
癌症	-4514
的前	-4515
相遇	-4516
给您	-4517
老鼠	-4518
胜利	-4519
西亚	-4520
象征	-4521
资料	-4522
超级	-4523
身材	-4524
途径	-4525
障碍	-4526
vir	-4527
▁14	-4528
▁9]	-4529
▁bl	-4530
▁et	-4531
▁他们	-4532
▁你的	-4533
▁分析	-4534
▁判断	-4535
▁年龄	-4536
▁注意	-4537
世界中	-4538
中找到	-4539
了一场	-4540
了我的	-4541
他人的	-4542
分类器	-4543
创始人	-4544
创新的	-4545
和使用	-4546
和情感	-4547
和智能	-4548
复仇者	-4549
大多数	-4550
将其中	-4551
我们也	-4552
我听说	-4553
提到了	-4554
明白了	-4555
是一家	-4556
是多少	-4557
最适合	-4558
来预测	-4559
标题和	-4560
每一个	-4561
流行的	-4562
焦虑和	-4563
的体验	-4564
的排放	-4565
这句话	-4566
食品的	-4567
▁bec	-4568
▁del	-4569
▁soc	-4570
个人隐私	-4571
品牌形象	-4572
如果我们	-4573
字的文章	-4574
对环境的	-4575
很感兴趣	-4576
星际穿越	-4577
最大公约	-4578
未来发展	-4579
每个人的	-4580
每个单词	-4581
特别是在	-4582
空气污染	-4583
组成部分	-4584
训练一个	-4585
进行编辑	-4586
viron	-4587
▁make	-4588
充足的睡眠	-4589
复仇者联盟	-4590
带来了一些	-4591
我最喜欢的	-4592
给定的文本	-4593
预训练模型	-4594
▁exper	-4595
▁words	-4596
回答这个问题	-4597
1]	-4598
3)	-4599
84	-4600
Fi	-4601
li	-4602
▁>	-4603
▁嗨	-4604
。(	-4605
》:	-4606
不够	-4607
与之	-4608
从未	-4609
但它	-4610
保险	-4611
允许	-4612
其实	-4613
则是	-4614
古典	-4615
围绕	-4616
多年	-4617
好像	-4618
小写	-4619
小型	-4620
小心	-4621
尺寸	-4622
帮忙	-4623
平时	-4624
平板	-4625
异常	-4626
引导	-4627
强大	-4628
教堂	-4629
明媚	-4630
框架	-4631
泰国	-4632
漫画	-4633
灾难	-4634
电器	-4635
盖茨	-4636
空格	-4637
筛选	-4638
肯定	-4639
胜地	-4640
节日	-4641
血管	-4642
试试	-4643
财产	-4644
追溯	-4645
透明	-4646
除此	-4647
饮酒	-4648
魅力	-4649
app	-4650
erv	-4651
joy	-4652
ton	-4653
▁18	-4654
▁50	-4655
▁提示	-4656
▁晚餐	-4657
▁材料	-4658
▁评论	-4659
不可少	-4660
初学者	-4661
在周末	-4662
应包括	-4663
开放式	-4664
我去了	-4665
我推荐	-4666
描述了	-4667
文本的	-4668
方法来	-4669
期待着	-4670
比特币	-4671
温暖的	-4672
的一种	-4673
的计划	-4674
的食品	-4675
等多个	-4676
等多种	-4677
类似于	-4678
让他们	-4679
风格和	-4680
Lisa	-4681
aman	-4682
ator	-4683
ever	-4684
nder	-4685
ting	-4686
▁bet	-4687
▁pos	-4688
▁who	-4689
▁关键字	-4690
世界各地	-4691
以下步骤	-4692
做出贡献	-4693
可能会对	-4694
各个领域	-4695
回答问题	-4696
团队成员	-4697
学习编程	-4698
平均值为	-4699
成为一个	-4700
电影类型	-4701
联系方式	-4702
这是一部	-4703
重要作用	-4704
除此之外	-4705
预训练时	-4706
单词或短语	-4707
压力和焦虑	-4708
社交媒体上	-4709
蔬菜和水果	-4710
重要的作用	-4711
随着技术的	-4712
amantha	-4713
▁environ	-4714
自然语言处理技术	-4715
▁technology	-4716
%,	-4717
hy	-4718
乐队	-4719
乘积	-4720
亚洲	-4721
企鹅	-4722
体现	-4723
信念	-4724
入胜	-4725
冷静	-4726
制品	-4727
单位	-4728
南极	-4729
反思	-4730
和对	-4731
和有	-4732
外星	-4733
小块	-4734
小镇	-4735
尾巴	-4736
损害	-4737
收获	-4738
教师	-4739
景观	-4740
最为	-4741
欢乐	-4742
灵感	-4743
点击	-4744
真相	-4745
线性	-4746
质和	-4747
走在	-4748
过多	-4749
运营	-4750
通信	-4751
风能	-4752
餐饮	-4753
cer	-4754
led	-4755
own	-4756
ren	-4757
▁中国	-4758
▁定期	-4759
▁确定	-4760
▁科技	-4761
▁餐厅	-4762
个数字	-4763
优缺点	-4764
使用了	-4765
创业者	-4766
制造业	-4767
向量机	-4768
和人类	-4769
因为他	-4770
很重要	-4771
我今天	-4772
技术在	-4773
时间内	-4774
时间表	-4775
有任何	-4776
沙滩上	-4777
注意到	-4778
珍贵的	-4779
的位置	-4780
的名字	-4781
的情况	-4782
考虑到	-4783
行业中	-4784
适用于	-4785
需要的	-4786
Alex	-4787
This	-4788
ased	-4789
ital	-4790
ople	-4791
▁11,	-4792
▁199	-4793
▁act	-4794
▁her	-4795
▁let	-4796
▁par	-4797
▁see	-4798
▁写一个	-4799
▁同义词	-4800
▁我认为	-4801
人际关系	-4802
保持联系	-4803
可持续的	-4804
大写字母	-4805
就业机会	-4806
必不可少	-4807
监督学习	-4808
相互作用	-4809
让人感到	-4810
▁健康饮食	-4811
▁给出一段	-4812
▁给定一篇	-4813
产品或服务	-4814
以下是一个	-4815
健康的饮食	-4816
全球变暖的	-4817
支持向量机	-4818
▁Emily	-4819
▁group	-4820
▁在此任务中	-4821
▁对于给定的	-4822
模拟人类智能	-4823
▁给定两个数字	-4824
▁Chinese	-4825
▁learning	-4826
敏捷的棕色狐狸跳过	-4827
▁environment	-4828
(1	-4829
35	-4830
4:	-4831
ik	-4832
we	-4833
一片	-4834
下的	-4835
下载	-4836
也为	-4837
人在	-4838
人群	-4839
付出	-4840
以后	-4841
众多	-4842
做得	-4843
充电	-4844
公主	-4845
冷却	-4846
到低	-4847
力学	-4848
卡路	-4849
反映	-4850
受伤	-4851
可读	-4852
商家	-4853
奇幻	-4854
好友	-4855
好好	-4856
希腊	-4857
引入	-4858
微风	-4859
慢跑	-4860
成熟	-4861
改正	-4862
有限	-4863
机票	-4864
来看	-4865
每年	-4866
水中	-4867
流浪	-4868
浏览	-4869
深深	-4870
清新	-4871
清洗	-4872
温馨	-4873
演奏	-4874
热带	-4875
甜点	-4876
畅销	-4877
百年	-4878
的海	-4879
缺少	-4880
要去	-4881
语料	-4882
跳舞	-4883
钥匙	-4884
银河	-4885
阐述	-4886
陪伴	-4887
黄油	-4888
elf	-4889
hed	-4890
lud	-4891
pen	-4892
val	-4893
▁My	-4894
▁一位	-4895
▁动物	-4896
▁按照	-4897
▁瑜伽	-4898
以获取	-4899
卡路里	-4900
可靠性	-4901
在家中	-4902
塑料袋	-4903
失去了	-4904
实际上	-4905
已经在	-4906
应包含	-4907
我一直	-4908
是非常	-4909
比萨饼	-4910
没问题	-4911
涵盖了	-4912
生活在	-4913
的安全	-4914
的帮助	-4915
的意思	-4916
的旅行	-4917
的活动	-4918
目的是	-4919
等信息	-4920
见到你	-4921
面临的	-4922
音乐和	-4923
高到低	-4924
Mary	-4925
anda	-4926
ways	-4927
▁eff	-4928
专业人士	-4929
个性化的	-4930
如何使用	-4931
尽可能地	-4932
尽量避免	-4933
引人入胜	-4934
我一直在	-4935
我会考虑	-4936
电影名称	-4937
购物清单	-4938
这个句子	-4939
▁Mary	-4940
▁else	-4941
▁high	-4942
▁pass	-4943
▁were	-4944
一名年轻的	-4945
产品和服务	-4946
听起来不错	-4947
已经成为了	-4948
歌曲的歌词	-4949
非常感兴趣	-4950
▁Peter	-4951
▁根据给定的输入	-4952
('	-4953
64	-4954
la	-4955
ui	-4956
},	-4957
▁与	-4958
不得	-4959
不懈	-4960
与人	-4961
主菜	-4962
乔治	-4963
争议	-4964
人机	-4965
份额	-4966
偏见	-4967
光线	-4968
入门	-4969
全力	-4970
内在	-4971
出门	-4972
分解	-4973
华盛	-4974
和无	-4975
和海	-4976
喜悦	-4977
好吧	-4978
子里	-4979
家园	-4980
帮你	-4981
开展	-4982
忽视	-4983
我和	-4984
按钮	-4985
数是	-4986
树叶	-4987
演出	-4988
照片	-4989
物流	-4990
糖分	-4991
纪录	-4992
线上	-4993
融合	-4994
论点	-4995
词性	-4996
资深	-4997
起床	-4998
身边	-4999
进化	-5000
错过	-5001
鲸鱼	-5002
cri	-5003
els	-5004
ink	-5005
ize	-5006
mon	-5007
▁au	-5008
▁er	-5009
▁巴黎	-5010
▁模型	-5011
▁正面	-5012
▁美国	-5013
▁进行	-5014
▁选项	-5015
▁题目	-5016
不喜欢	-5017
个字符	-5018
免疫力	-5019
决策树	-5020
华盛顿	-5021
可以将	-5022
和市场	-5023
建立了	-5024
提供更	-5025
最多的	-5026
本小说	-5027
的夜晚	-5028
的简短	-5029
盖茨比	-5030
背景和	-5031
自身的	-5032
行为和	-5033
认识到	-5034
训练和	-5035
设计师	-5036
语料库	-5037
语言的	-5038
陌生人	-5039
2018	-5040
book	-5041
duct	-5042
orus	-5043
ural	-5044
▁13,	-5045
▁GPT	-5046
▁hum	-5047
▁我推荐	-5048
▁数据集	-5049
一部电影	-5050
不必要的	-5051
从高到低	-5052
以下文本	-5053
使其更具	-5054
共同努力	-5055
关键信息	-5056
减少使用	-5057
发现自己	-5058
基础设施	-5059
我喜欢吃	-5060
提供更加	-5061
的摄入量	-5062
维生素和	-5063
这些技术	-5064
随机整数	-5065
骑自行车	-5066
hello	-5067
orted	-5068
▁Lily	-5069
▁这篇文章	-5070
听起来很有	-5071
最重要的是	-5072
机器学习和	-5073
ential	-5074
人工智能可以	-5075
使其更加流畅	-5076
全球气候变化	-5077
极端天气事件	-5078
生成一篇文章	-5079
▁Person	-5080
▁differ	-5081
▁根据以下输入	-5082
▁根据所提供的	-5083
▁生成一个关于	-5084
________	-5085
▁correct	-5086
▁在给定的文本中	-5087
▁给定一段英文文本	-5088
▁beautiful	-5089
▁development	-5090
!”	-5091
21	-5092
27	-5093
Al	-5094
ds	-5095
▁}	-5096
▁÷	-5097
▁•	-5098
▁可	-5099
交往	-5100
人性	-5101
信仰	-5102
充实	-5103
公元	-5104
分支	-5105
分散	-5106
制度	-5107
原文	-5108
变量	-5109
启发	-5110
商场	-5111
善良	-5112
外的	-5113
大于	-5114
头痛	-5115
奥运	-5116
子的	-5117
山脉	-5118
带着	-5119
并用	-5120
扩张	-5121
拥堵	-5122
文艺	-5123
显得	-5124
木星	-5125
朴素	-5126
比亚	-5127
沙发	-5128
激情	-5129
玉米	-5130
生菜	-5131
用词	-5132
界面	-5133
疯狂	-5134
的总	-5135
硬件	-5136
私人	-5137
绘画	-5138
联合	-5139
西瓜	-5140
认证	-5141
调节	-5142
负担	-5143
贸易	-5144
跳跃	-5145
较低	-5146
运输	-5147
还会	-5148
选手	-5149
队伍	-5150
非洲	-5151
ger	-5152
lic	-5153
ner	-5154
oph	-5155
▁As	-5156
▁ag	-5157
▁gl	-5158
▁内容	-5159
▁小华	-5160
▁小李	-5161
▁小王	-5162
▁早餐	-5163
不超过	-5164
他喜欢	-5165
但我们	-5166
但是我	-5167
便利和	-5168
关注的	-5169
内心的	-5170
分钟的	-5171
发生的	-5172
吸引了	-5173
在金融	-5174
壮观的	-5175
大学生	-5176
奥斯卡	-5177
奥运会	-5178
并减少	-5179
并计算	-5180
建议吗	-5181
开始了	-5182
影响了	-5183
很多人	-5184
情节和	-5185
提取出	-5186
摄氏度	-5187
是为了	-5188
来解决	-5189
栖息地	-5190
深刻的	-5191
的人物	-5192
的氛围	-5193
等因素	-5194
要保持	-5195
采用了	-5196
青少年	-5197
领导者	-5198
Mike	-5199
ness	-5200
nums	-5201
▁(19	-5202
▁New	-5203
▁adv	-5204
▁反义词	-5205
▁目的地	-5206
▁请给我	-5207
一些问题	-5208
可以减少	-5209
寻求帮助	-5210
文学作品	-5211
生态环境	-5212
经济增长	-5213
缓解压力	-5214
让我感到	-5215
这是一篇	-5216
非常适合	-5217
happy	-5218
rough	-5219
verse	-5220
▁Java	-5221
▁给出一些	-5222
可以帮助您	-5223
合并成一个	-5224
家人和朋友	-5225
广泛应用于	-5226
意大利面条	-5227
文化和历史	-5228
经验丰富的	-5229
▁store	-5230
应对气候变化	-5231
▁banana	-5232
▁inform	-5233
我们的生活方式	-5234
esterday	-5235
计算它们的平均值	-5236
8。	-5237
ID	-5238
St	-5239
oe	-5240
pr	-5241
一点	-5242
下去	-5243
不用	-5244
代替	-5245
但不	-5246
住宿	-5247
体型	-5248
信用	-5249
全部	-5250
凯特	-5251
反转	-5252
古迹	-5253
各国	-5254
吉他	-5255
启动	-5256
埃及	-5257
处于	-5258
多彩	-5259
大地	-5260
奇数	-5261
女人	-5262
学业	-5263
宾语	-5264
寂静	-5265
对象	-5266
导航	-5267
小组	-5268
就能	-5269
广场	-5270
开车	-5271
很高	-5272
得出	-5273
打印	-5274
承受	-5275
接近	-5276
提交	-5277
旋转	-5278
气息	-5279
猜测	-5280
现状	-5281
理由	-5282
监控	-5283
真诚	-5284
编码	-5285
草原	-5286
获奖	-5287
装修	-5288
见解	-5289
诗人	-5290
起了	-5291
迎接	-5292
阿尔	-5293
陷入	-5294
att	-5295
oon	-5296
use	-5297
▁Ex	-5298
▁br	-5299
▁po	-5300
▁作者	-5301
▁创建	-5302
▁午餐	-5303
▁名词	-5304
▁因为	-5305
▁正文	-5306
▁请问	-5307
一次性	-5308
中选择	-5309
为公司	-5310
主题为	-5311
从小到	-5312
以减少	-5313
保护和	-5314
团队的	-5315
在美国	-5316
对应的	-5317
对未来	-5318
很喜欢	-5319
是否是	-5320
水资源	-5321
的不同	-5322
的人们	-5323
的决策	-5324
的最佳	-5325
稳定性	-5326
算法和	-5327
被称为	-5328
读者的	-5329
过去的	-5330
运动和	-5331
饮食和	-5332
黑洞的	-5333
IMDb	-5334
ater	-5335
irst	-5336
ware	-5337
▁any	-5338
▁set	-5339
▁sur	-5340
▁为一个	-5341
▁如果你	-5342
▁我们的	-5343
从而提高	-5344
休息时间	-5345
制定一个	-5346
可以利用	-5347
太空探索	-5348
建立一个	-5349
我们正在	-5350
撰写一篇	-5351
科技公司	-5352
还有一些	-5353
这样才能	-5354
阳光明媚	-5355
0,000	-5356
orrow	-5357
▁life	-5358
▁part	-5359
▁prom	-5360
▁want	-5361
▁well	-5362
▁社交媒体	-5363
▁给出两个	-5364
至关重要的	-5365
语法和拼写	-5366
公共交通工具	-5367
非常感谢您的	-5368
▁includ	-5369
▁生成一篇关于	-5370
英文句子翻译成中文	-5371
0.	-5372
23	-5373
85	-5374
Ex	-5375
GB	-5376
▁无	-5377
▁热	-5378
三文	-5379
也要	-5380
买了	-5381
亚马	-5382
做到	-5383
关心	-5384
加快	-5385
即将	-5386
去除	-5387
吃了	-5388
名人	-5389
唱歌	-5390
填写	-5391
备用	-5392
奖励	-5393
宗教	-5394
家里	-5395
密切	-5396
当他	-5397
当我	-5398
很棒	-5399
思路	-5400
您能	-5401
感冒	-5402
拿铁	-5403
排名	-5404
接着	-5405
景象	-5406
更具	-5407
月亮	-5408
来了	-5409
欺诈	-5410
水上	-5411
的书	-5412
相机	-5413
而不	-5414
茶匙	-5415
虚假	-5416
融化	-5417
观念	-5418
警惕	-5419
语义	-5420
谈判	-5421
资产	-5422
较高	-5423
这场	-5424
退休	-5425
金山	-5426
问答	-5427
gan	-5428
ody	-5429
”,“	-5430
▁<=	-5431
▁PM	-5432
▁Sm	-5433
▁以上	-5434
▁修改	-5435
▁另外	-5436
▁场景	-5437
▁技能	-5438
▁指令	-5439
▁请将	-5440
▁这家	-5441
三文鱼	-5442
与人类	-5443
世界上	-5444
亚马逊	-5445
其他的	-5446
准确地	-5447
准确的	-5448
几十年	-5449
历史和	-5450
可以从	-5451
和交通	-5452
在这段	-5453
基本的	-5454
大自然	-5455
存在的	-5456
学校的	-5457
它们在	-5458
宇宙的	-5459
引起了	-5460
思考和	-5461
情感和	-5462
想象力	-5463
数据点	-5464
新闻稿	-5465
是一座	-5466
是我的	-5467
有多少	-5468
有机会	-5469
的健康	-5470
的具体	-5471
的功能	-5472
的年轻	-5473
的核心	-5474
的质量	-5475
社会和	-5476
通常会	-5477
错误的	-5478
需要在	-5479
Lily	-5480
icle	-5481
imes	-5482
ized	-5483
read	-5484
▁10]	-5485
▁Int	-5486
▁[2,	-5487
▁end	-5488
▁get	-5489
▁rec	-5490
中文文本	-5491
你的工作	-5492
出现频率	-5493
到了一个	-5494
医学影像	-5495
可以追溯	-5496
和反义词	-5497
图像识别	-5498
当今社会	-5499
深入了解	-5500
电子设备	-5501
睡眠质量	-5502
认真考虑	-5503
销售数据	-5504
Belle	-5505
▁disc	-5506
▁most	-5507
▁walk	-5508
▁生成一份	-5509
▁给定以下	-5510
▁编写一篇	-5511
不同类型的	-5512
可持续能源	-5513
太阳能电池	-5514
您可以使用	-5515
科技的发展	-5516
表达自己的	-5517
解决问题的	-5518
选择合适的	-5519
听起来很不错	-5520
是非常重要的	-5521
▁根据用户提供的	-5522
越来越多的人开始	-5523
▁business	-5524
▁communic	-5525
Ad	-5526
Am	-5527
ek	-5528
sp	-5529
”(	-5530
▁嗯	-5531
一座	-5532
一边	-5533
主意	-5534
之中	-5535
仰卧	-5536
促销	-5537
俯卧	-5538
公斤	-5539
内置	-5540
决心	-5541
几乎	-5542
单车	-5543
吃饭	-5544
回文	-5545
地面	-5546
对抗	-5547
并让	-5548
废弃	-5549
您对	-5550
情景	-5551
懒惰	-5552
我去	-5553
指示	-5554
探测	-5555
收到	-5556
斯特	-5557
易懂	-5558
最长	-5559
村庄	-5560
样本	-5561
气球	-5562
汤匙	-5563
洗净	-5564
涂上	-5565
温和	-5566
爱和	-5567
父亲	-5568
牛排	-5569
的高	-5570
眼镜	-5571
索引	-5572
紧密	-5573
红酒	-5574
花朵	-5575
蓝莓	-5576
融入	-5577
跳绳	-5578
近日	-5579
近期	-5580
还要	-5581
配菜	-5582
阶段	-5583
阿里	-5584
风暴	-5585
饼干	-5586
(1,	-5587
ash	-5588
der	-5589
rap	-5590
ues	-5591
▁16	-5592
▁上海	-5593
▁完成	-5594
▁小芳	-5595
▁旅游	-5596
▁研究	-5597
▁确保	-5598
▁针对	-5599
与他人	-5600
中位数	-5601
之一是	-5602
亲爱的	-5603
以获得	-5604
俯卧撑	-5605
共同的	-5606
创造力	-5607
力量和	-5608
动作片	-5609
去公园	-5610
发生了	-5611
呈现出	-5612
周围的	-5613
和理解	-5614
和经验	-5615
大熊猫	-5616
它们是	-5617
年上映	-5618
并且在	-5619
形成的	-5620
我知道	-5621
旧金山	-5622
材料和	-5623
来减少	-5624
玛丽亚	-5625
的变化	-5626
的开头	-5627
的态度	-5628
相同的	-5629
真是太	-5630
研究和	-5631
罗伯特	-5632
翻译为	-5633
葡萄酒	-5634
观点和	-5635
调味料	-5636
这里的	-5637
难忘的	-5638
ball	-5639
name	-5640
▁1.《	-5641
▁1/2	-5642
▁21,	-5643
▁Mar	-5644
▁max	-5645
▁请给出	-5646
令人兴奋	-5647
分类模型	-5648
切成小块	-5649
历史上最	-5650
取得成功	-5651
可以考虑	-5652
可持续性	-5653
城市规划	-5654
市场趋势	-5655
我不知道	-5656
海洋生物	-5657
清洁能源	-5658
生成摘要	-5659
生活习惯	-5660
百年孤独	-5661
简洁明了	-5662
职业发展	-5663
节约能源	-5664
设计一个	-5665
该电影的	-5666
详细信息	-5667
谢谢您的	-5668
重新排列	-5669
量子力学	-5670
ative	-5671
ience	-5672
▁What	-5673
▁char	-5674
▁they	-5675
可以追溯到	-5676
提供更多的	-5677
最好的朋友	-5678
每个单词的	-5679
集中注意力	-5680
ustain	-5681
▁count	-5682
▁以下是一篇	-5683
▁将以下文本	-5684
每个人都应该	-5685
谢谢你的建议	-5686
▁给定一段文字	-5687
按字母顺序排序	-5688
▁provide	-5689
▁important	-5690
']	-5691
/4	-5692
76	-5693
ML	-5694
My	-5695
NN	-5696
au	-5697
▁q	-5698
▁天	-5699
▁据	-5700
▁新	-5701
▁本	-5702
▁猫	-5703
▁老	-5704
不到	-5705
两位	-5706
中央	-5707
体系	-5708
保存	-5709
兔子	-5710
公倍	-5711
共鸣	-5712
准则	-5713
剧本	-5714
办法	-5715
加密	-5716
动态	-5717
原则	-5718
发射	-5719
叶斯	-5720
合法	-5721
名言	-5722
后果	-5723
和平	-5724
咖喱	-5725
哪种	-5726
圣母	-5727
填空	-5728
外部	-5729
多项	-5730
宝石	-5731
尼斯	-5732
展览	-5733
差为	-5734
布局	-5735
广阔	-5736
总体	-5737
戒烟	-5738
截止	-5739
承担	-5740
抽出	-5741
按摩	-5742
敬礼	-5743
日落	-5744
明亮	-5745
暴力	-5746
本质	-5747
机械	-5748
构成	-5749
模仿	-5750
氧气	-5751
活力	-5752
用餐	-5753
病情	-5754
精度	-5755
精确	-5756
糕点	-5757
翻炒	-5758
聚类	-5759
至今	-5760
警方	-5761
转型	-5762
这也	-5763
适宜	-5764
逃脱	-5765
通顺	-5766
邮箱	-5767
领先	-5768
鸭子	-5769
12,	-5770
ams	-5771
ify	-5772
man	-5773
oud	-5774
vol	-5775
▁Am	-5776
▁Be	-5777
▁Me	-5778
▁介绍	-5779
▁列表	-5780
▁学会	-5781
▁快乐	-5782
▁目前	-5783
▁练习	-5784
不确定	-5785
个小时	-5786
了一位	-5787
其主要	-5788
准确率	-5789
历史上	-5790
去中心	-5791
可以用	-5792
听音乐	-5793
学会了	-5794
学生们	-5795
孩子们	-5796
将这些	-5797
并通过	-5798
态度和	-5799
来支持	-5800
潜在的	-5801
的不断	-5802
纪录片	-5803
让自己	-5804
请将其	-5805
贝叶斯	-5806
轻松地	-5807
这使得	-5808
这需要	-5809
附近的	-5810
预处理	-5811
ited	-5812
vent	-5813
ward	-5814
▁2.《	-5815
▁3.《	-5816
▁man	-5817
▁min	-5818
▁pre	-5819
▁为什么	-5820
▁在一个	-5821
令人惊叹	-5822
力量训练	-5823
单词列表	-5824
可能需要	-5825
后的文章	-5826
如何提高	-5827
安全问题	-5828
已经开始	-5829
市场份额	-5830
并将它们	-5831
我是一个	-5832
更加高效	-5833
最小公倍	-5834
每天早上	-5835
治疗方案	-5836
电子产品	-5837
自然保护	-5838
表现出色	-5839
解决方法	-5840
这个城市	-5841
这意味着	-5842
锻炼身体	-5843
需要使用	-5844
非常有趣	-5845
Peter	-5846
cript	-5847
etime	-5848
pport	-5849
uture	-5850
▁long	-5851
▁prog	-5852
出现的次数	-5853
另一种语言	-5854
首字母大写	-5855
▁enjoy	-5856
▁gener	-5857
▁years	-5858
▁写一篇关于	-5859
在这段对话中	-5860
按照字母顺序	-5861
解决这个问题	-5862
▁always	-5863
▁people	-5864
维生素和矿物质	-5865
▁example	-5866
产生了深远的影响	-5867
▁将以下句子翻译成法语	-5868
▁总结下面这段文本的关键词	-5869
)]	-5870
29	-5871
lu	-5872
▁Z	-5873
▁以	-5874
▁祝	-5875
。“	-5876
》-	-5877
一层	-5878
专门	-5879
为主	-5880
之情	-5881
任意	-5882
停止	-5883
军事	-5884
分隔	-5885
切碎	-5886
创立	-5887
利于	-5888
发表	-5889
同意	-5890
向前	-5891
固定	-5892
塞纳	-5893
奖项	-5894
婚姻	-5895
子上	-5896
字体	-5897
局限	-5898
帖子	-5899
幅画	-5900
年前	-5901
建于	-5902
当时	-5903
心率	-5904
快餐	-5905
战胜	-5906
拯救	-5907
教授	-5908
教父	-5909
整体	-5910
是啊	-5911
某种	-5912
消除	-5913
渴望	-5914
激烈	-5915
猴子	-5916
画家	-5917
的路	-5918
益处	-5919
相应	-5920
砍伐	-5921
礼貌	-5922
繁忙	-5923
线索	-5924
肥胖	-5925
请您	-5926
迁徙	-5927
这么	-5928
这份	-5929
进度	-5930
遥远	-5931
配备	-5932
酸奶	-5933
高达	-5934
鸟儿	-5935
anc	-5936
let	-5937
son	-5938
▁11	-5939
▁24	-5940
▁45	-5941
▁Em	-5942
▁了解	-5943
▁人名	-5944
▁导演	-5945
▁这是	-5946
▁音乐	-5947
一个新	-5948
下个月	-5949
不断的	-5950
为人类	-5951
为用户	-5952
了不起	-5953
产生的	-5954
人性的	-5955
创造出	-5956
和完善	-5957
和脂肪	-5958
圣母院	-5959
在我的	-5960
塞纳河	-5961
完整的	-5962
对社会	-5963
并提出	-5964
当我们	-5965
心脏病	-5966
惊人的	-5967
我们对	-5968
我非常	-5969
数字是	-5970
日本的	-5971
最高的	-5972
有一天	-5973
李老板	-5974
来进行	-5975
比赛的	-5976
海滩上	-5977
环境中	-5978
的出现	-5979
的形式	-5980
的项目	-5981
目标是	-5982
第一位	-5983
经历了	-5984
都有着	-5985
ular	-5986
▁dec	-5987
▁将下列	-5988
▁第一个	-5989
▁这两个	-5990
不同之处	-5991
中的一个	-5992
也越来越	-5993
以下单词	-5994
以下问题	-5995
可以降低	-5996
回答您的	-5997
坚持不懈	-5998
工作压力	-5999
提供帮助	-6000
智能化的	-6001
更有效地	-6002
的时间和	-6003
这有助于	-6004
需要帮助	-6005
顺序排列	-6006
Sarah	-6007
itive	-6008
uring	-6009
▁even	-6010
▁read	-6011
▁wind	-6012
应用程序的	-6013
成功的关键	-6014
技术的应用	-6015
朴素贝叶斯	-6016
盐和黑胡椒	-6017
知识和技能	-6018
给定的句子	-6019
自己的梦想	-6020
▁以下是一些	-6021
▁基于给定的	-6022
randint	-6023
▁comple	-6024
▁sorted	-6025
人工智能的应用	-6026
使用的中文文章	-6027
▁sustain	-6028
▁根据给定的主题	-6029
▁information	-6030
3。	-6031
5。	-6032
He	-6033
fr	-6034
lp	-6035
me	-6036
oj	-6037
to	-6038
wn	-6039
ym	-6040
▁×	-6041
▁每	-6042
▁盐	-6043
▁金	-6044
▁高	-6045
不安	-6046
业绩	-6047
今晚	-6048
传记	-6049
公交	-6050
其在	-6051
写出	-6052
几天	-6053
南京	-6054
发掘	-6055
可口	-6056
可行	-6057
合成	-6058
国内	-6059
在此	-6060
多元	-6061
多吃	-6062
妈妈	-6063
实力	-6064
对待	-6065
寺庙	-6066
小张	-6067
小米	-6068
巴巴	-6069
平底	-6070
应聘	-6071
开源	-6072
待办	-6073
必需	-6074
恰当	-6075
惊讶	-6076
我爱	-6077
打粉	-6078
拌匀	-6079
拍摄	-6080
指数	-6081
接收	-6082
推移	-6083
放置	-6084
效益	-6085
星星	-6086
杂志	-6087
极性	-6088
每一	-6089
沉迷	-6090
渐渐	-6091
游记	-6092
演唱	-6093
相加	-6094
短篇	-6095
细菌	-6096
菠萝	-6097
蜂蜜	-6098
街道	-6099
要素	-6100
解答	-6101
记得	-6102
评级	-6103
谷物	-6104
边缘	-6105
远处	-6106
酱汁	-6107
重量	-6108
鞋子	-6109
15-	-6110
:20	-6111
BER	-6112
ble	-6113
ock	-6114
rue	-6115
yst	-6116
▁+=	-6117
▁An	-6118
▁No	-6119
▁To	-6120
▁fa	-6121
▁作为	-6122
▁建立	-6123
▁我在	-6124
▁故事	-6125
▁演员	-6126
▁第三	-6127
不错的	-6128
世界杯	-6129
了一次	-6130
价值和	-6131
你应该	-6132
做一些	-6133
展现出	-6134
常用的	-6135
开发和	-6136
心血管	-6137
志愿者	-6138
我建议	-6139
我昨天	-6140
打电话	-6141
拖延症	-6142
方式和	-6143
是一本	-6144
服务和	-6145
来完成	-6146
欣赏到	-6147
深刻地	-6148
燕麦片	-6149
的作者	-6150
的声音	-6151
的学习	-6152
的经典	-6153
的表演	-6154
的颜色	-6155
科技和	-6156
第一次	-6157
第二个	-6158
结构和	-6159
网站上	-6160
请问您	-6161
赢得了	-6162
连接到	-6163
通过对	-6164
音乐的	-6165
2000	-6166
ican	-6167
ices	-6168
ives	-6169
ower	-6170
▁[3,	-6171
▁add	-6172
▁cal	-6173
▁fil	-6174
▁rem	-6175
▁对以下	-6176
▁请生成	-6177
三角形的	-6178
了不起的	-6179
人们应该	-6180
但同时也	-6181
全麦面包	-6182
包含以下	-6183
名词短语	-6184
基因编辑	-6185
实际应用	-6186
尝试新的	-6187
我很喜欢	-6188
整数列表	-6189
潜在客户	-6190
生态平衡	-6191
线性回归	-6192
经济发展	-6193
表现出了	-6194
表达能力	-6195
让计算机	-6196
这座城市	-6197
阿里巴巴	-6198
非常出色	-6199
David	-6200
email	-6201
puter	-6202
ution	-6203
ystem	-6204
▁Mark	-6205
▁cult	-6206
▁when	-6207
▁当然可以	-6208
▁我喜欢吃	-6209
▁生成一首	-6210
▁给出一组	-6211
主题相关的	-6212
带来了许多	-6213
技能和经验	-6214
提供了一些	-6215
政府和企业	-6216
时间的推移	-6217
现代社会中	-6218
疾病的风险	-6219
能够更好地	-6220
身体健康的	-6221
------	-6222
orange	-6223
▁Hello	-6224
▁impro	-6225
▁music	-6226
▁study	-6227
中的语法错误	-6228
人工智能系统	-6229
今天天气真好	-6230
其中的关键词	-6231
对环境的影响	-6232
并解释为什么	-6233
提高工作效率	-6234
机器学习模型	-6235
被广泛应用于	-6236
什么是人工智能	-6237
温室气体的排放	-6238
的重要组成部分	-6239
▁However	-6240
▁company	-6241
▁friends	-6242
▁根据给定的句子	-6243
rtificial	-6244
▁根据给定的关键词	-6245
▁artificial	-6246
22	-6247
42	-6248
:8	-6249
Je	-6250
Le	-6251
ux	-6252
▁%	-6253
上去	-6254
下了	-6255
不想	-6256
个体	-6257
乐观	-6258
人和	-6259
从事	-6260
他对	-6261
以免	-6262
优美	-6263
优雅	-6264
伸展	-6265
作物	-6266
债券	-6267
分词	-6268
剧院	-6269
加拿	-6270
协同	-6271
发出	-6272
吃的	-6273
向上	-6274
困扰	-6275
复兴	-6276
夕阳	-6277
大幅	-6278
安慰	-6279
山峰	-6280
弯曲	-6281
强化	-6282
当代	-6283
心的	-6284
必备	-6285
恶意	-6286
愿景	-6287
成瘾	-6288
手工	-6289
手臂	-6290
抖音	-6291
拒绝	-6292
拿起	-6293
推断	-6294
改编	-6295
斐波	-6296
有多	-6297
棒了	-6298
模块	-6299
每组	-6300
浓郁	-6301
火腿	-6302
玻璃	-6303
球队	-6304
登山	-6305
看了	-6306
短句	-6307
礼仪	-6308
祝福	-6309
租车	-6310
羽毛	-6311
肌肤	-6312
行驶	-6313
要点	-6314
该书	-6315
贝尔	-6316
走进	-6317
起坐	-6318
轨道	-6319
那契	-6320
长颈	-6321
预期	-6322
鸟类	-6323
300	-6324
als	-6325
bbb	-6326
iew	-6327
ina	-6328
not	-6329
uck	-6330
yle	-6331
▁6]	-6332
▁Ad	-6333
▁Al	-6334
▁Is	-6335
▁di	-6336
▁利用	-6337
▁商品	-6338
▁增加	-6339
▁学习	-6340
▁老师	-6341
▁邮件	-6342
一本书	-6343
也可能	-6344
会影响	-6345
做出了	-6346
公司在	-6347
其他人	-6348
北京市	-6349
友好的	-6350
变化的	-6351
合理的	-6352
和决策	-6353
和幸福	-6354
和社交	-6355
和自然	-6356
喝咖啡	-6357
在使用	-6358
在哪里	-6359
在学校	-6360
当前的	-6361
快速的	-6362
情绪和	-6363
想法和	-6364
或中性	-6365
揭示了	-6366
新能源	-6367
旅游和	-6368
日期和	-6369
是基于	-6370
有没有	-6371
本文将	-6372
灵活性	-6373
的优点	-6374
的冒险	-6375
的发生	-6376
的算法	-6377
花园里	-6378
该单词	-6379
该怎么	-6380
请随时	-6381
过多的	-6382
运动的	-6383
速度和	-6384
长颈鹿	-6385
食动物	-6386
高品质	-6387
avor	-6388
erry	-6389
fore	-6390
ills	-6391
ling	-6392
text	-6393
▁Max	-6394
▁[5,	-6395
▁len	-6396
▁reg	-6397
▁在以下	-6398
▁请列出	-6399
一些关于	-6400
也是一个	-6401
了解一下	-6402
仰卧起坐	-6403
作为一种	-6404
你有没有	-6405
减少污染	-6406
创作一个	-6407
博客文章	-6408
可以促进	-6409
和最小值	-6410
团队协作	-6411
对其进行	-6412
市场需求	-6413
应该包括	-6414
懒惰的狗	-6415
投资组合	-6416
挑战性的	-6417
文化遗产	-6418
斐波那契	-6419
模型根据	-6420
现代科技	-6421
等方面的	-6422
给定文本	-6423
购物中心	-6424
12345	-6425
:2021	-6426
ature	-6427
ities	-6428
ments	-6429
words	-6430
▁mach	-6431
▁week	-6432
▁我喜欢在	-6433
▁电子邮件	-6434
具体的信息	-6435
减少碳排放	-6436
大数据分析	-6437
技能和知识	-6438
生物多样性	-6439
笔记本电脑	-6440
让我们一起	-6441
随着科技的	-6442
▁David	-6443
▁bbbbb	-6444
▁would	-6445
下面这段文字	-6446
保持身体健康	-6447
回答您的问题	-6448
我在预训练时	-6449
ression	-6450
▁indust	-6451
▁really	-6452
▁创建一个包含	-6453
▁生成一个包含	-6454
健康的生活方式	-6455
气候变化的影响	-6456
▁through	-6457
▁人工智能是一种	-6458
▁bbbbbbbb	-6459
++	-6460
-1	-6461
1。	-6462
5:	-6463
YZ	-6464
za	-6465
▁:	-6466
▁书	-6467
▁它	-6468
▁某	-6469
下雨	-6470
不好	-6471
与此	-6472
个数	-6473
为我	-6474
久的	-6475
之作	-6476
人力	-6477
今年	-6478
从此	-6479
以此	-6480
传感	-6481
但她	-6482
何时	-6483
依然	-6484
停车	-6485
初步	-6486
副词	-6487
升级	-6488
南部	-6489
危机	-6490
去年	-6491
向我	-6492
周长	-6493
土星	-6494
地名	-6495
塞罗	-6496
大陆	-6497
天赋	-6498
失踪	-6499
它对	-6500
定律	-6501
客厅	-6502
得分	-6503
心肺	-6504
怀疑	-6505
总部	-6506
意式	-6507
戏剧	-6508
我能	-6509
打败	-6510
挖掘	-6511
携带	-6512
摆脱	-6513
明星	-6514
是最	-6515
更是	-6516
本身	-6517
烤鸭	-6518
狗狗	-6519
王子	-6520
现有	-6521
琳达	-6522
病人	-6523
白云	-6524
的和	-6525
相差	-6526
短暂	-6527
穿过	-6528
简化	-6529
结交	-6530
老人	-6531
营造	-6532
蜜蜂	-6533
被动	-6534
记住	-6535
语境	-6536
贷款	-6537
进而	-6538
那只	-6539
采访	-6540
面糊	-6541
餐具	-6542
高端	-6543
2:“	-6544
ais	-6545
ste	-6546
uss	-6547
▁28	-6548
▁再次	-6549
▁摘要	-6550
▁敬礼	-6551
▁无法	-6552
▁智能	-6553
▁此致	-6554
▁负面	-6555
▁香蕉	-6556
。1.	-6557
三角形	-6558
不少于	-6559
了新的	-6560
交流和	-6561
以实现	-6562
优美的	-6563
光合作	-6564
全球性	-6565
公元前	-6566
其摘要	-6567
动植物	-6568
发生在	-6569
可以被	-6570
可用于	-6571
和个人	-6572
和历史	-6573
和客户	-6574
和控制	-6575
和法律	-6576
和满足	-6577
和饮料	-6578
喜欢吃	-6579
地球上	-6580
塞罗那	-6581
多样化	-6582
大部分	-6583
天文学	-6584
季度的	-6585
实现了	-6586
导致的	-6587
小明的	-6588
已经有	-6589
已经被	-6590
建议和	-6591
快节奏	-6592
慢慢地	-6593
时间段	-6594
有些人	-6595
有益于	-6596
水平的	-6597
沉浸在	-6598
活动和	-6599
深深地	-6600
清晰的	-6601
特点和	-6602
环保和	-6603
的一天	-6604
的书籍	-6605
的代码	-6606
的会议	-6607
的合作	-6608
的好处	-6609
的季节	-6610
的推荐	-6611
的材料	-6612
的行为	-6613
的速度	-6614
稳定的	-6615
还没有	-6616
都应该	-6617
魔法师	-6618
BERT	-6619
IMDB	-6620
fter	-6621
ible	-6622
iety	-6623
ough	-6624
unct	-6625
usan	-6626
▁22,	-6627
▁23,	-6628
▁30,	-6629
▁Sha	-6630
▁ben	-6631
▁cap	-6632
▁don	-6633
▁fin	-6634
▁now	-6635
▁sit	-6636
▁use	-6637
▁将一个	-6638
▁我正在	-6639
▁最大值	-6640
▁请为我	-6641
一本关于	-6642
不仅仅是	-6643
中国古代	-6644
从数据中	-6645
位于美国	-6646
你的想法	-6647
做好准备	-6648
全球经济	-6649
准确性和	-6650
取代人类	-6651
古典音乐	-6652
在对话中	-6653
在工作中	-6654
垃圾分类	-6655
工作机会	-6656
巴塞罗那	-6657
希望能够	-6658
平时喜欢	-6659
应用领域	-6660
待办事项	-6661
总的来说	-6662
我们能够	-6663
描述一个	-6664
更准确地	-6665
更多关于	-6666
没有任何	-6667
相信自己	-6668
这个故事	-6669
这家餐厅	-6670
这种方法	-6671
风险管理	-6672
lease	-6673
▁expl	-6674
▁find	-6675
▁help	-6676
▁pour	-6677
▁test	-6678
▁描述一下	-6679
▁给出一篇	-6680
▁编辑一篇	-6681
一个年轻的	-6682
和机器学习	-6683
学习和成长	-6684
数据集进行	-6685
是一种非常	-6686
未来的发展	-6687
的主要原因	-6688
的天气预报	-6689
还可以帮助	-6690
采取措施来	-6691
采取行动来	-6692
需要进一步	-6693
▁chall	-6694
▁doing	-6695
▁found	-6696
▁movie	-6697
▁以下是一个	-6698
▁请生成一个	-6699
也带来了一些	-6700
社交媒体平台	-6701
▁Chorus	-6702
最大值和最小值	-6703
CGCGCGCG	-6704
▁article	-6705
总结其中的关键词	-6706
')	-6707
37	-6708
4)	-6709
86	-6710
</	-6711
An	-6712
fe	-6713
▁。	-6714
▁上	-6715
▁刘	-6716
一颗	-6717
上有	-6718
与你	-6719
交谈	-6720
仅仅	-6721
传说	-6722
元音	-6723
全国	-6724
兰花	-6725
农场	-6726
冰川	-6727
利福	-6728
前行	-6729
前进	-6730
卡拉	-6731
友情	-6732
取消	-6733
变为	-6734
可视	-6735
否定	-6736
周期	-6737
和我	-6738
在我	-6739
场面	-6740
奶泡	-6741
存款	-6742
它在	-6743
实例	-6744
审查	-6745
家中	-6746
小芳	-6747
工厂	-6748
干预	-6749
平等	-6750
彻底	-6751
微软	-6752
德语	-6753
惊险	-6754
愿望	-6755
我要	-6756
手环	-6757
拿着	-6758
按时	-6759
探究	-6760
摄像	-6761
教程	-6762
数和	-6763
整洁	-6764
文物	-6765
旋律	-6766
无尽	-6767
无线	-6768
是吗	-6769
有人	-6770
有用	-6771
权益	-6772
条款	-6773
果汁	-6774
模板	-6775
橙汁	-6776
欢快	-6777
正方	-6778
毅力	-6779
比喻	-6780
沙漠	-6781
沿着	-6782
涂抹	-6783
激动	-6784
炎热	-6785
焦点	-6786
特尔	-6787
瑟夫	-6788
的长	-6789
粉色	-6790
纸张	-6791
缓慢	-6792
缺失	-6793
而异	-6794
节点	-6795
英里	-6796
菜谱	-6797
要有	-6798
视野	-6799
说话	-6800
诸多	-6801
谜题	-6802
超越	-6803
跟我	-6804
较为	-6805
还在	-6806
这对	-6807
进制	-6808
进程	-6809
迟到	-6810
部和	-6811
酱料	-6812
金钱	-6813
集成	-6814
震撼	-6815
音频	-6816
风光	-6817
饮品	-6818
香料	-6819
马上	-6820
(10	-6821
1:“	-6822
:",	-6823
CEO	-6824
DNA	-6825
She	-6826
[1,	-6827
acy	-6828
cel	-6829
ica	-6830
ius	-6831
lst	-6832
new	-6833
ope	-6834
oth	-6835
und	-6836
▁Qu	-6837
▁Sh	-6838
▁Un	-6839
▁ed	-6840
▁fl	-6841
▁ph	-6842
▁他的	-6843
▁寻找	-6844
▁开始	-6845
▁昨天	-6846
▁歌词	-6847
▁职业	-6848
一只猫	-6849
不得不	-6850
与自然	-6851
为一个	-6852
为人们	-6853
为客户	-6854
人们在	-6855
他发现	-6856
以满足	-6857
你最近	-6858
公交车	-6859
加利福	-6860
努力和	-6861
和优化	-6862
和家人	-6863
和家庭	-6864
和污染	-6865
和美食	-6866
和问题	-6867
咖啡馆	-6868
多年的	-6869
大利亚	-6870
孩子的	-6871
小男孩	-6872
市场中	-6873
并按照	-6874
强烈的	-6875
影响力	-6876
我们有	-6877
旅游的	-6878
早上好	-6879
明显的	-6880
是正面	-6881
晒太阳	-6882
更快地	-6883
最畅销	-6884
有价值	-6885
李老师	-6886
来帮助	-6887
满意度	-6888
生成的	-6889
的名称	-6890
的平方	-6891
的情节	-6892
的旅游	-6893
的自然	-6894
研究的	-6895
红色的	-6896
约瑟夫	-6897
统计学	-6898
网站或	-6899
自信心	-6900
计划在	-6901
让用户	-6902
该文本	-6903
高热量	-6904
ffee	-6905
iven	-6906
orry	-6907
sear	-6908
verb	-6909
▁25,	-6910
▁ear	-6911
▁eat	-6912
▁从以下	-6913
不断提高	-6914
交通工具	-6915
人类社会	-6916
保持健康	-6917
创造力和	-6918
制定计划	-6919
另一方面	-6920
可以增加	-6921
地理位置	-6922
多样化的	-6923
尝试使用	-6924
平均值是	-6925
当地美食	-6926
感谢你的	-6927
我想知道	-6928
我的朋友	-6929
拿铁咖啡	-6930
更多的人	-6931
添加一个	-6932
澳大利亚	-6933
特定单词	-6934
睡眠时间	-6935
研究人员	-6936
能源消耗	-6937
航空公司	-6938
视觉效果	-6939
训练模型	-6940
身心健康	-6941
还有很多	-6942
还有许多	-6943
这些信息	-6944
需要我们	-6945
ophie	-6946
▁Over	-6947
▁With	-6948
▁flow	-6949
▁jump	-6950
▁made	-6951
▁plan	-6952
▁pres	-6953
▁工作经历	-6954
▁描述如何	-6955
▁教育背景	-6956
▁文章标题	-6957
▁英文文本	-6958
加利福尼亚	-6959
对模型进行	-6960
我们也需要	-6961
我们的公司	-6962
按升序排列	-6963
这将有助于	-6964
Script	-6965
istory	-6966
▁Apple	-6967
▁using	-6968
产生负面影响	-6969
很高兴见到你	-6970
提高生产效率	-6971
数据进行分类	-6972
生成一个标题	-6973
的几个关键词	-6974
解决这些问题	-6975
非常感谢你的	-6976
acebook	-6977
▁orange	-6978
保护我们的星球	-6979
同义词和反义词	-6980
技术的不断发展	-6981
拼写和语法错误	-6982
按字母顺序排列	-6983
随着时间的推移	-6984
翻译成另一种语言	-6985
▁给定一个英文句子	-6986
人工智能技术的发展	-6987
总结上面这段文本的几个关键词	-6988
38	-6989
5)	-6990
5.	-6991
79	-6992
:4	-6993
by	-6994
cy	-6995
▁?	-6996
▁起	-6997
。《	-6998
一门	-6999
两段	-7000
乐器	-7001
他很	-7002
他还	-7003
侦探	-7004
便宜	-7005
做法	-7006
兄弟	-7007
入手	-7008
关怀	-7009
分子	-7010
前来	-7011
勤奋	-7012
包裹	-7013
史蒂	-7014
各业	-7015
各行	-7016
周五	-7017
和盐	-7018
品味	-7019
器的	-7020
图形	-7021
图案	-7022
声誉	-7023
外套	-7024
太多	-7025
奋斗	-7026
字段	-7027
学历	-7028
家长	-7029
对应	-7030
寿司	-7031
属性	-7032
工人	-7033
已知	-7034
并以	-7035
应为	-7036
归类	-7037
形态	-7038
快递	-7039
性质	-7040
我有	-7041
或不	-7042
捕捉	-7043
敏感	-7044
无聊	-7045
日子	-7046
春季	-7047
是对	-7048
月光	-7049
朗玛	-7050
本科	-7051
比例	-7052
水星	-7053
没错	-7054
演化	-7055
炸鸡	-7056
爆炸	-7057
珠穆	-7058
生气	-7059
监狱	-7060
相当	-7061
糟糕	-7062
繁殖	-7063
纪念	-7064
缺陷	-7065
罗宾	-7066
美洲	-7067
翅膀	-7068
街头	-7069
观赏	-7070
谚语	-7071
走了	-7072
跃过	-7073
轻易	-7074
远离	-7075
通讯	-7076
遭受	-7077
里奥	-7078
里程	-7079
零食	-7080
青菜	-7081
麦克	-7082
180	-7083
Web	-7084
abc	-7085
aly	-7086
ave	-7087
eep	-7088
ght	-7089
gin	-7090
ian	-7091
ift	-7092
rid	-7093
sum	-7094
▁0,	-7095
▁90	-7096
▁Ed	-7097
▁Re	-7098
▁下午	-7099
▁主要	-7100
▁包含	-7101
▁我对	-7102
▁明天	-7103
▁没有	-7104
▁狮子	-7105
▁由于	-7106
▁番茄	-7107
▁短文	-7108
▁那么	-7109
▁非常	-7110
上海市	-7111
上进行	-7112
下一步	-7113
与同事	-7114
也应该	-7115
也开始	-7116
了一份	-7117
了一项	-7118
他非常	-7119
你必须	-7120
倾向于	-7121
南极洲	-7122
可能对	-7123
可读性	-7124
告诉他	-7125
和信息	-7126
和沟通	-7127
和焦虑	-7128
和高效	-7129
咖啡豆	-7130
在处理	-7131
它能够	-7132
希望能	-7133
并纠正	-7134
废弃物	-7135
开发者	-7136
很容易	-7137
微小的	-7138
愉快的	-7139
我感到	-7140
我曾经	-7141
抗氧化	-7142
指的是	-7143
摄像头	-7144
新朋友	-7145
旅途中	-7146
是一件	-7147
朗玛峰	-7148
来计算	-7149
标准差	-7150
模型对	-7151
每天都	-7152
泡打粉	-7153
活动的	-7154
然后再	-7155
玩游戏	-7156
疑问句	-7157
的一些	-7158
的一项	-7159
的人员	-7160
的地址	-7161
的处理	-7162
的职业	-7163
给人们	-7164
老年人	-7165
英特尔	-7166
詹姆斯	-7167
计算出	-7168
让学生	-7169
设备和	-7170
该句子	-7171
请注意	-7172
贵公司	-7173
迷人的	-7174
造成的	-7175
颜色的	-7176
风格的	-7177
高脂肪	-7178
edia	-7179
erse	-7180
gest	-7181
ield	-7182
ivid	-7183
izza	-7184
olor	-7185
rain	-7186
▁And	-7187
▁aut	-7188
▁fam	-7189
▁lot	-7190
▁spe	-7191
▁too	-7192
▁为一篇	-7193
▁亲爱的	-7194
▁请编辑	-7195
一些适合	-7196
不断改进	-7197
但是我们	-7198
你喜欢的	-7199
值得一看	-7200
全球气温	-7201
努力工作	-7202
可以采取	-7203
各行各业	-7204
商业模式	-7205
在我们的	-7206
学习新的	-7207
它是一个	-7208
市场调查	-7209
您可以在	-7210
我会尽力	-7211
我喜欢在	-7212
文本数据	-7213
没有提供	-7214
物理学家	-7215
的主题和	-7216
相似之处	-7217
膳食纤维	-7218
自然环境	-7219
被动语态	-7220
过度使用	-7221
这些方法	-7222
阅读理解	-7223
隐私问题	-7224
非常好的	-7225
aking	-7226
month	-7227
title	-7228
▁Jane	-7229
▁good	-7230
▁name	-7231
▁only	-7232
▁rain	-7233
▁take	-7234
▁used	-7235
▁电影类型	-7236
以下是一篇	-7237
其摘要内容	-7238
商业计划书	-7239
学习新技能	-7240
开放式生成	-7241
我们的团队	-7242
找出其中的	-7243
水果和蔬菜	-7244
混合在一起	-7245
珠穆朗玛峰	-7246
生态系统的	-7247
的故事情节	-7248
积极的心态	-7249
翻译成英语	-7250
还可以通过	-7251
隐私和安全	-7252
onjour	-7253
verage	-7254
▁could	-7255
▁incre	-7256
▁learn	-7257
人脸识别技术	-7258
▁contin	-7259
▁给出一个句子	-7260
▁给我推荐一部	-7261
人工智能的文章	-7262
将其翻译成中文	-7263
总结其摘要内容	-7264
ransform	-7265
▁different	-7266
,《	-7267
63	-7268
65	-7269
OS	-7270
TC	-7271
wo	-7272
一则	-7273
三体	-7274
与我	-7275
两次	-7276
严峻	-7277
中有	-7278
为的	-7279
人才	-7280
付款	-7281
俱乐	-7282
共有	-7283
写信	-7284
农村	-7285
切片	-7286
压缩	-7287
反抗	-7288
口罩	-7289
启示	-7290
四个	-7291
圆形	-7292
均值	-7293
城堡	-7294
外貌	-7295
奇妙	-7296
女友	-7297
对此	-7298
对该	-7299
将是	-7300
尽情	-7301
店铺	-7302
开采	-7303
悬疑	-7304
感动	-7305
慢性	-7306
打破	-7307
掌控	-7308
推销	-7309
提到	-7310
教训	-7311
文案	-7312
月份	-7313
期限	-7314
杯子	-7315
气味	-7316
求解	-7317
波动	-7318
流派	-7319
海报	-7320
深蹲	-7321
漏洞	-7322
演示	-7323
火山	-7324
爬山	-7325
特斯	-7326
玫瑰	-7327
环节	-7328
珊瑚	-7329
理财	-7330
生意	-7331
疫苗	-7332
的主	-7333
的星	-7334
瞬间	-7335
站在	-7336
笑话	-7337
简明	-7338
精通	-7339
绘制	-7340
给人	-7341
绝对	-7342
置信	-7343
肝脏	-7344
股市	-7345
英尺	-7346
落叶	-7347
薯条	-7348
血液	-7349
让您	-7350
设立	-7351
请你	-7352
豆类	-7353
轿车	-7354
适度	-7355
邪恶	-7356
配置	-7357
随地	-7358
随意	-7359
集合	-7360
零售	-7361
面向	-7362
面部	-7363
高糖	-7364
魔术	-7365
","	-7366
(20	-7367
:25	-7368
amb	-7369
azz	-7370
cul	-7371
def	-7372
enn	-7373
itt	-7374
oji	-7375
ola	-7376
osh	-7377
▁13	-7378
▁Sc	-7379
▁其中	-7380
▁剧情	-7381
▁学生	-7382
▁定义	-7383
▁情感	-7384
▁数值	-7385
▁旅行	-7386
▁自由	-7387
▁蔬菜	-7388
与朋友	-7389
主题是	-7390
人民币	-7391
以下几	-7392
但它们	-7393
但最终	-7394
停用词	-7395
元素的	-7396
创作的	-7397
创造性	-7398
别人的	-7399
加强对	-7400
加拿大	-7401
动力和	-7402
印度尼	-7403
发展和	-7404
各样的	-7405
和各种	-7406
因斯坦	-7407
在一家	-7408
增加了	-7409
宠物狗	-7410
家庭的	-7411
将更加	-7412
小狐狸	-7413
并获得	-7414
应用到	-7415
度过了	-7416
建筑和	-7417
您认为	-7418
抗生素	-7419
放松和	-7420
明确的	-7421
是一场	-7422
是个好	-7423
是否会	-7424
标志着	-7425
森林里	-7426
添加到	-7427
的工具	-7428
的文字	-7429
的特点	-7430
的经历	-7431
的随机	-7432
的领域	-7433
神经元	-7434
空气中	-7435
等活动	-7436
糙米饭	-7437
纤维素	-7438
组织和	-7439
胡椒粉	-7440
自信和	-7441
西兰花	-7442
规律的	-7443
认识你	-7444
让你的	-7445
识别和	-7446
过去式	-7447
运算符	-7448
这可以	-7449
通常在	-7450
锻炼和	-7451
需要对	-7452
需要更	-7453
5000	-7454
Mark	-7455
aceX	-7456
ages	-7457
ents	-7458
ieve	-7459
over	-7460
umps	-7461
view	-7462
▁14,	-7463
▁17,	-7464
▁4.《	-7465
▁45,	-7466
▁5.《	-7467
▁cre	-7468
▁lar	-7469
▁mor	-7470
▁nec	-7471
▁pat	-7472
▁ris	-7473
▁rob	-7474
▁val	-7475
▁大熊猫	-7476
▁李老师	-7477
▁玛丽亚	-7478
一些挑战	-7479
一位年轻	-7480
个人口味	-7481
为我们的	-7482
任务清单	-7483
健康状况	-7484
加入适量	-7485
历史悠久	-7486
去看电影	-7487
可以实现	-7488
如何通过	-7489
建立联系	-7490
我是一名	-7491
找到一个	-7492
探索新的	-7493
数字营销	-7494
文章中的	-7495
文艺复兴	-7496
智慧城市	-7497
智能客服	-7498
治疗方法	-7499
注意力和	-7500
电影推荐	-7501
的发展和	-7502
睡眠习惯	-7503
科学研究	-7504
管理时间	-7505
药物研发	-7506
蛋白质和	-7507
这项技术	-7508
进行调整	-7509
需要根据	-7510
需要采取	-7511
马尔克斯	-7512
ility	-7513
▁Just	-7514
▁Mike	-7515
▁clim	-7516
▁date	-7517
▁ever	-7518
▁meet	-7519
▁oper	-7520
▁spec	-7521
▁给出一份	-7522
▁编辑下面	-7523
▁这是一段	-7524
之间的联系	-7525
了一种新的	-7526
以便更好地	-7527
印度尼西亚	-7528
可能会影响	-7529
吸引更多的	-7530
日期和时间	-7531
的解决方案	-7532
的重要因素	-7533
自己的工作	-7534
iction	-7535
▁Smith	-7536
▁creat	-7537
▁first	-7538
▁given	-7539
▁while	-7540
▁输出结果为	-7541
在社交媒体上	-7542
将其中的所有	-7543
_______	-7544
ificant	-7545
▁become	-7546
▁better	-7547
▁future	-7548
▁给定一个问题	-7549
▁success	-7550
▁Samantha	-7551
▁challeng	-7552
我无法回答这个问题	-7553
:7	-7554
BA	-7555
Wi	-7556
ah	-7557
aw	-7558
cm	-7559
up	-7560
”:	-7561
▁个	-7562
▁按	-7563
」「	-7564
一代	-7565
一辆	-7566
上述	-7567
不知	-7568
中华	-7569
乐园	-7570
也能	-7571
五种	-7572
交叉	-7573
交响	-7574
人都	-7575
传输	-7576
佛罗	-7577
你所	-7578
使之	-7579
使命	-7580
保密	-7581
倾听	-7582
假设	-7583
做了	-7584
储蓄	-7585
光芒	-7586
内存	-7587
冠军	-7588
减压	-7589
到来	-7590
单元	-7591
卷积	-7592
受益	-7593
听听	-7594
和更	-7595
器官	-7596
她在	-7597
家乡	-7598
密的	-7599
小华	-7600
小吃	-7601
小数	-7602
差值	-7603
带上	-7604
引用	-7605
总和	-7606
悉尼	-7607
您是	-7608
悲剧	-7609
愤怒	-7610
成的	-7611
房子	-7612
承诺	-7613
把握	-7614
折扣	-7615
护理	-7616
挑选	-7617
效应	-7618
斗争	-7619
日至	-7620
时态	-7621
是哪	-7622
最低	-7623
最多	-7624
有望	-7625
极具	-7626
梗概	-7627
检索	-7628
气氛	-7629
洗手	-7630
流量	-7631
深圳	-7632
清澈	-7633
瀑布	-7634
火箭	-7635
灯泡	-7636
熟透	-7637
猫和	-7638
留出	-7639
的第	-7640
看见	-7641
短缺	-7642
穿上	-7643
素材	-7644
结识	-7645
而然	-7646
花瓣	-7647
菠菜	-7648
蒸汽	-7649
蒸馏	-7650
装备	-7651
观测	-7652
诈骗	-7653
豪华	-7654
走路	-7655
过敏	-7656
这篇	-7657
配方	-7658
采集	-7659
金黄	-7660
门票	-7661
闪耀	-7662
问候	-7663
限于	-7664
除以	-7665
青椒	-7666
靠近	-7667
首席	-7668
-01	-7669
:1,	-7670
dat	-7671
erg	-7672
mat	-7673
ony	-7674
ris	-7675
ser	-7676
▁36	-7677
▁40	-7678
▁8]	-7679
▁Du	-7680
▁So	-7681
▁gr	-7682
▁sw	-7683
▁ve	-7684
▁夏天	-7685
▁希望	-7686
▁植物	-7687
▁水果	-7688
▁爱情	-7689
▁这组	-7690
▁饮食	-7691
中使用	-7692
中间值	-7693
些什么	-7694
人生的	-7695
他们对	-7696
以达到	-7697
但是他	-7698
信用卡	-7699
充分的	-7700
出租车	-7701
勇气和	-7702
卓越的	-7703
友谊和	-7704
发布会	-7705
可视化	-7706
和保护	-7707
和缺点	-7708
咖啡机	-7709
品牌和	-7710
品牌的	-7711
在某些	-7712
在许多	-7713
太阳的	-7714
完成了	-7715
对健康	-7716
小女孩	-7717
平均数	-7718
并描述	-7719
并表示	-7720
应该在	-7721
很不错	-7722
很有趣	-7723
情况和	-7724
我们要	-7725
我来说	-7726
抑郁症	-7727
政策和	-7728
教育和	-7729
新事物	-7730
方法是	-7731
是一段	-7732
智慧和	-7733
更多地	-7734
最佳的	-7735
有利于	-7736
有可能	-7737
模型为	-7738
然后将	-7739
牛奶和	-7740
特殊的	-7741
的作用	-7742
的增加	-7743
的日子	-7744
的细节	-7745
的艺术	-7746
的诗歌	-7747
相结合	-7748
类似的	-7749
类型和	-7750
考虑过	-7751
能力的	-7752
自己和	-7753
要学会	-7754
让读者	-7755
请输出	-7756
较高的	-7757
这一点	-7758
这个人	-7759
部肌肉	-7760
问题或	-7761
阳光和	-7762
项目的	-7763
预热至	-7764
come	-7765
▁35,	-7766
▁Com	-7767
▁Red	-7768
▁car	-7769
▁job	-7770
▁sub	-7771
▁vis	-7772
▁收件人	-7773
▁电影名	-7774
一个包含	-7775
一些新的	-7776
两个单词	-7777
两个城市	-7778
人类语言	-7779
从而减少	-7780
代码实现	-7781
以下几个	-7782
以及其他	-7783
免疫系统	-7784
共享单车	-7785
只是一个	-7786
可以随时	-7787
吸引力的	-7788
告诉我们	-7789
在线购物	-7790
大自然的	-7791
如果你想	-7792
如果没有	-7793
学习如何	-7794
它们之间	-7795
实现目标	-7796
寻找新的	-7797
并将结果	-7798
应该包含	-7799
强烈推荐	-7800
我们相信	-7801
我很乐意	-7802
我的公司	-7803
所带来的	-7804
数字序列	-7805
易于阅读	-7806
更准确的	-7807
森林砍伐	-7808
每个句子	-7809
然后使用	-7810
物种灭绝	-7811
瑜伽练习	-7812
生产效率	-7813
的数据集	-7814
目标受众	-7815
给我一些	-7816
自然而然	-7817
药物治疗	-7818
表达方式	-7819
训练集和	-7820
这段文字	-7821
远程办公	-7822
重要的是	-7823
金融服务	-7824
集中精力	-7825
arket	-7826
cient	-7827
stand	-7828
▁York	-7829
▁care	-7830
▁elif	-7831
▁food	-7832
▁home	-7833
▁look	-7834
▁nums	-7835
▁writ	-7836
之间的距离	-7837
历史和文化	-7838
和易于理解	-7839
巧克力蛋糕	-7840
成为了一个	-7841
我们还可以	-7842
数学表达式	-7843
时间和精力	-7844
更多的机会	-7845
添加适当的	-7846
10,000	-7847
ingred	-7848
▁favor	-7849
▁happy	-7850
▁human	-7851
▁robot	-7852
▁under	-7853
加利福尼亚州	-7854
日常生活中的	-7855
ception	-7856
ization	-7857
▁effect	-7858
▁impact	-7859
▁should	-7860
▁描述如何制作	-7861
▁编辑以下段落	-7862
▁自然语言处理	-7863
两个日期之间的	-7864
了不起的盖茨比	-7865
使用可再生能源	-7866
▁编辑下面的句子	-7867
越来越重要的作用	-7868
▁给定一个英文单词	-7869
敏捷的棕色狐狸跃过	-7870
ingredient	-7871
总结上面这段文本的摘要	-7872
▁significant	-7873
▁sustainable	-7874
)+	-7875
26	-7876
68	-7877
9。	-7878
be	-7879
”)	-7880
▁向	-7881
▁坐	-7882
▁谁	-7883
▁马	-7884
▁黄	-7885
、5	-7886
不如	-7887
不满	-7888
中立	-7889
中等	-7890
了他	-7891
了她	-7892
交换	-7893
他是	-7894
伤亡	-7895
作出	-7896
修理	-7897
借助	-7898
入侵	-7899
公开	-7900
公民	-7901
兴起	-7902
分割	-7903
去掉	-7904
去看	-7905
友善	-7906
发水	-7907
可供	-7908
可爱	-7909
同一	-7910
名的	-7911
吸管	-7912
告知	-7913
和您	-7914
响应	-7915
在树	-7916
地产	-7917
型的	-7918
复合	-7919
多芬	-7920
天堂	-7921
失眠	-7922
头发	-7923
女神	-7924
好看	-7925
好评	-7926
字数	-7927
它也	-7928
容器	-7929
少量	-7930
山顶	-7931
布鲁	-7932
开销	-7933
引言	-7934
或许	-7935
所给	-7936
拥抱	-7937
排版	-7938
收藏	-7939
斯蒂	-7940
无数	-7941
无穷	-7942
是很	-7943
晴天	-7944
杀手	-7945
权限	-7946
杉矶	-7947
桌子	-7948
橙色	-7949
欣喜	-7950
母亲	-7951
每日	-7952
毛衣	-7953
注入	-7954
流感	-7955
浓缩	-7956
消毒	-7957
深处	-7958
点至	-7959
烘烤	-7960
烤制	-7961
烧烤	-7962
熬夜	-7963
爆发	-7964
片和	-7965
牛顿	-7966
的吗	-7967
的水	-7968
的话	-7969
直至	-7970
直角	-7971
睡前	-7972
立场	-7973
竹子	-7974
粮食	-7975
红楼	-7976
级别	-7977
维修	-7978
自制	-7979
自在	-7980
致命	-7981
草寺	-7982
荣幸	-7983
莎士	-7984
营业	-7985
蒜末	-7986
角落	-7987
议题	-7988
误解	-7989
课堂	-7990
轮胎	-7991
轻便	-7992
过来	-7993
连续	-7994
遭遇	-7995
那样	-7996
部的	-7997
酱油	-7998
间的	-7999
闹钟	-8000
防范	-8001
随之	-8002
隐藏	-8003
震动	-8004
飓风	-8005
"],	-8006
()`	-8007
,20	-8008
:19	-8009
:8.	-8010
Mic	-8011
ele	-8012
ern	-8013
fic	-8014
hes	-8015
ins	-8016
ows	-8017
uit	-8018
xxx	-8019
▁17	-8020
▁23	-8021
▁4]	-8022
▁ob	-8023
▁一段	-8024
▁一组	-8025
▁会议	-8026
▁位于	-8027
▁其他	-8028
▁动词	-8029
▁原句	-8030
▁喜欢	-8031
▁当前	-8032
▁找出	-8033
▁本文	-8034
▁艾米	-8035
▁莉莉	-8036
▁评分	-8037
▁这段	-8038
▁这种	-8039
不应该	-8040
中获得	-8041
了一名	-8042
了一款	-8043
了解到	-8044
了这个	-8045
享受到	-8046
人物的	-8047
但他们	-8048
你今天	-8049
使人们	-8050
包含了	-8051
反映了	-8052
口感和	-8053
只需要	-8054
可重复	-8055
名字和	-8056
吸引力	-8057
和影响	-8058
和技能	-8059
和改进	-8060
和海洋	-8061
和自我	-8062
和语言	-8063
商品的	-8064
喜好和	-8065
在中国	-8066
在城市	-8067
在这次	-8068
处理和	-8069
大气中	-8070
大气层	-8071
女主角	-8072
如何将	-8073
它不仅	-8074
完美的	-8075
工作时	-8076
工艺品	-8077
并帮助	-8078
并说明	-8079
快速地	-8080
恐怖片	-8081
惊悚片	-8082
成立于	-8083
我现在	-8084
我经常	-8085
或使用	-8086
房地产	-8087
投资人	-8088
数学题	-8089
方便地	-8090
方式来	-8091
旅游业	-8092
时代的	-8093
是全球	-8094
是地球	-8095
是现代	-8096
最热门	-8097
有力的	-8098
来改善	-8099
洗发水	-8100
洛杉矶	-8101
深层次	-8102
烤盘中	-8103
燕麦粥	-8104
特斯拉	-8105
电视机	-8106
的依赖	-8107
的味道	-8108
的简要	-8109
的设计	-8110
的趋势	-8111
的运动	-8112
的部分	-8113
的首都	-8114
相似的	-8115
神奇的	-8116
科动物	-8117
科幻片	-8118
表现力	-8119
被视为	-8120
贝多芬	-8121
资源和	-8122
适合的	-8123
道路上	-8124
采取了	-8125
颗行星	-8126
额外的	-8127
魔法石	-8128
,000	-8129
ason	-8130
cher	-8131
hael	-8132
noun	-8133
oday	-8134
onna	-8135
reen	-8136
▁Dog	-8137
▁Out	-8138
▁XXX	-8139
▁acc	-8140
▁att	-8141
▁cur	-8142
▁ele	-8143
▁err	-8144
▁ext	-8145
▁key	-8146
▁pot	-8147
▁tre	-8148
一个句子	-8149
一个问题	-8150
一段时间	-8151
丰富多彩	-8152
主动语态	-8153
也成为了	-8154
买了一些	-8155
交通方式	-8156
从而实现	-8157
你可以在	-8158
光合作用	-8159
列表中的	-8160
加工食品	-8161
哈利波特	-8162
塑料垃圾	-8163
太阳系中	-8164
将在未来	-8165
应该如何	-8166
开发一款	-8167
您的公司	-8168
我们一起	-8169
所提供的	-8170
执行任务	-8171
数字货币	-8172
文本生成	-8173
日程安排	-8174
最小值为	-8175
有足够的	-8176
正在改变	-8177
瑜伽姿势	-8178
电商平台	-8179
目标客户	-8180
短篇小说	-8181
等方式来	-8182
美国总统	-8183
自动生成	-8184
至少包含	-8185
英语单词	-8186
莎士比亚	-8187
著名景点	-8188
要求使用	-8189
输出结果	-8190
这个产品	-8191
这些活动	-8192
这是一种	-8193
进行翻译	-8194
避免使用	-8195
高质量的	-8196
10-15	-8197
▁Name	-8198
▁That	-8199
▁able	-8200
▁just	-8201
▁than	-8202
▁工作经验	-8203
▁根据给定	-8204
了解自己的	-8205
区块链技术	-8206
同时也可以	-8207
工作和生活	-8208
巨大的影响	-8209
当地的美食	-8210
才能更好地	-8211
技术的进步	-8212
提供了一个	-8213
气候变化对	-8214
环境保护的	-8215
的一个重要	-8216
简短的故事	-8217
经验和技能	-8218
重要的角色	-8219
Amanda	-8220
ftware	-8221
number	-8222
▁There	-8223
▁email	-8224
▁gonna	-8225
▁请根据以下	-8226
从高到低排序	-8227
卷积神经网络	-8228
可以帮助医生	-8229
斐波那契数列	-8230
生成一个关于	-8231
虚拟现实技术	-8232
进行情感分析	-8233
▁coffee	-8234
▁market	-8235
▁skills	-8236
▁transl	-8237
▁根据以下信息	-8238
▁perform	-8239
▁without	-8240
作为一个语言模型	-8241
人工智能和机器学习	-8242
保持健康的生活方式	-8243
生活中不可或缺的一部分	-8244
▁translation	-8245
▁Intelligence	-8246
▁environmental	-8247
MI	-8248
OK	-8249
QL	-8250
ix	-8251
▁,	-8252
▁三	-8253
下次	-8254
之和	-8255
之路	-8256
乘以	-8257
了吗	-8258
了好	-8259
争取	-8260
人为	-8261
从来	-8262
仪式	-8263
低碳	-8264
你说	-8265
冠词	-8266
出演	-8267
分心	-8268
剩余	-8269
加拉	-8270
博士	-8271
厨师	-8272
参赛	-8273
发行	-8274
可可	-8275
合约	-8276
后来	-8277
听众	-8278
听力	-8279
和可	-8280
和非	-8281
回来	-8282
困惑	-8283
在了	-8284
坚韧	-8285
增添	-8286
多人	-8287
大桥	-8288
头脑	-8289
女儿	-8290
嫌疑	-8291
定时	-8292
审视	-8293
将于	-8294
小于	-8295
尼尔	-8296
床上	-8297
当你	-8298
徒步	-8299
心里	-8300
思绪	-8301
所未	-8302
承认	-8303
拍照	-8304
损伤	-8305
斑马	-8306
日记	-8307
明智	-8308
有何	-8309
有力	-8310
本次	-8311
案子	-8312
欲望	-8313
正是	-8314
永不	-8315
治愈	-8316
海岸	-8317
海滨	-8318
深厚	-8319
炒至	-8320
率和	-8321
珍珠	-8322
瓶颈	-8323
界的	-8324
留学	-8325
疲惫	-8326
疼痛	-8327
百万	-8328
百度	-8329
相处	-8330
秋季	-8331
稍微	-8332
简史	-8333
精致	-8334
素数	-8335
繁琐	-8336
纷纷	-8337
续航	-8338
综述	-8339
罗斯	-8340
草地	-8341
获胜	-8342
街上	-8343
诚实	-8344
诚挚	-8345
语文	-8346
豆瓣	-8347
资本	-8348
足迹	-8349
边长	-8350
这件	-8351
追寻	-8352
邻居	-8353
金星	-8354
饺子	-8355
饼皮	-8356
驾车	-8357
骨骼	-8358
高温	-8359
鸢尾	-8360
400	-8361
IDF	-8362
___	-8363
but	-8364
ero	-8365
imm	-8366
min	-8367
orn	-8368
qrt	-8369
rix	-8370
usk	-8371
▁**	-8372
▁1]	-8373
▁Je	-8374
▁Le	-8375
▁['	-8376
▁ty	-8377
▁不要	-8378
▁个人	-8379
▁动作	-8380
▁员工	-8381
▁咖啡	-8382
▁孩子	-8383
▁小张	-8384
▁很好	-8385
▁提高	-8386
▁替换	-8387
▁每天	-8388
▁环保	-8389
▁积极	-8390
▁素食	-8391
▁纽约	-8392
▁询问	-8393
▁运动	-8394
▁适量	-8395
严格的	-8396
中扮演	-8397
为自己	-8398
人类对	-8399
价格和	-8400
伴随着	-8401
供应商	-8402
供应链	-8403
俱乐部	-8404
制作的	-8405
努力地	-8406
努力的	-8407
勇敢地	-8408
参与者	-8409
可以去	-8410
名人的	-8411
听到了	-8412
和专业	-8413
和小红	-8414
和成就	-8415
和推广	-8416
和组织	-8417
和调整	-8418
在他的	-8419
在公园	-8420
在这种	-8421
坚定的	-8422
天王星	-8423
奇怪的	-8424
对这个	-8425
并寻求	-8426
并开始	-8427
并找到	-8428
并简要	-8429
并询问	-8430
我们所	-8431
我发现	-8432
我能够	-8433
推动了	-8434
是法国	-8435
有多种	-8436
来描述	-8437
来自于	-8438
没有人	-8439
洋葱和	-8440
清新的	-8441
现代化	-8442
生产线	-8443
电子书	-8444
电影院	-8445
的优势	-8446
的作品	-8447
的大小	-8448
的学生	-8449
的想法	-8450
的朋友	-8451
的美食	-8452
的角色	-8453
的训练	-8454
的销售	-8455
知名的	-8456
程度上	-8457
练习和	-8458
自由和	-8459
观众的	-8460
计划的	-8461
该如何	-8462
该模型	-8463
还能够	-8464
这不仅	-8465
问题等	-8466
阅读和	-8467
需要有	-8468
颜色和	-8469
高科技	-8470
Jane	-8471
NASA	-8472
abor	-8473
aper	-8474
ared	-8475
ense	-8476
ique	-8477
pear	-8478
plit	-8479
stag	-8480
▁16,	-8481
▁40,	-8482
▁che	-8483
▁ide	-8484
▁lib	-8485
▁mod	-8486
▁red	-8487
▁run	-8488
▁sky	-8489
▁sle	-8490
▁sol	-8491
▁tom	-8492
▁two	-8493
▁une	-8494
▁将下面	-8495
▁我昨天	-8496
▁我需要	-8497
▁近年来	-8498
不良影响	-8499
也面临着	-8500
人类文明	-8501
以更好地	-8502
保持专注	-8503
做的事情	-8504
健康食品	-8505
其独特的	-8506
医疗领域	-8507
历史上的	-8508
各种任务	-8509
合作伙伴	-8510
在市场上	-8511
在沙滩上	-8512
在线学习	-8513
城市之一	-8514
客户服务	-8515
小写字母	-8516
工作经验	-8517
帮助医生	-8518
思维能力	-8519
我会尽快	-8520
我明白了	-8521
截止日期	-8522
手机游戏	-8523
拥有许多	-8524
无法确定	-8525
更多信息	-8526
有所不同	-8527
机器人的	-8528
沟通能力	-8529
流浪地球	-8530
浓缩咖啡	-8531
熟练掌握	-8532
爱情故事	-8533
生命中的	-8534
的人来说	-8535
的平均值	-8536
示例代码	-8537
科技发展	-8538
空气质量	-8539
竞争优势	-8540
罗马数字	-8541
职业规划	-8542
能够理解	-8543
艺术形式	-8544
英语文章	-8545
表面温度	-8546
诊断疾病	-8547
足球比赛	-8548
这是因为	-8549
销售额为	-8550
降低成本	-8551
需要不断	-8552
黑客攻击	-8553
igned	-8554
ining	-8555
iting	-8556
light	-8557
▁Amer	-8558
▁They	-8559
▁blue	-8560
▁down	-8561
▁fact	-8562
▁past	-8563
▁产品名称	-8564
▁今天天气	-8565
▁原始句子	-8566
▁帮助用户	-8567
▁给我列出	-8568
▁英文句子	-8569
主题的文章	-8570
今天的天气	-8571
并提供一个	-8572
摄入足够的	-8573
是一种基于	-8574
深度学习和	-8575
等多个领域	-8576
美好的未来	-8577
自己的目标	-8578
身体和心理	-8579
这可以通过	-8580
Person	-8581
cience	-8582
ington	-8583
▁after	-8584
▁never	-8585
▁我最喜欢的	-8586
一封电子邮件	-8587
互联网的普及	-8588
公司的创始人	-8589
智能家居系统	-8590
深度学习技术	-8591
自然语言生成	-8592
ountain	-8593
ramming	-8594
stagram	-8595
▁calcul	-8596
▁cannot	-8597
▁resear	-8598
▁人工智能是指	-8599
▁编写一篇关于	-8600
▁编辑一篇文章	-8601
人工智能技术在	-8602
健康的饮食习惯	-8603
我们的生活更加	-8604
volution	-8605
▁从给定的文本中	-8606
▁computer	-8607
▁industry	-8608
ransformer	-8609
▁including	-8610
▁potential	-8611
▁experience	-8612
我在预训练时使用的中文文章	-8613
▁communication	-8614
----------------	-8615
-5	-8616
6。	-8617
7-	-8618
:9	-8619
AC	-8620
ED	-8621
Em	-8622
ST	-8623
iP	-8624
io	-8625
ét	-8626
▁两	-8627
▁好	-8628
▁如	-8629
▁待	-8630
▁春	-8631
▁白	-8632
一同	-8633
一旦	-8634
为此	-8635
他想	-8636
以内	-8637
会的	-8638
伴侣	-8639
余弦	-8640
作文	-8641
你呢	-8642
免受	-8643
关联	-8644
养老	-8645
分辨	-8646
前的	-8647
原料	-8648
发言	-8649
台上	-8650
合伙	-8651
同比	-8652
哈哈	-8653
因其	-8654
园林	-8655
场地	-8656
墨西	-8657
外面	-8658
多次	-8659
太太	-8660
威尔	-8661
它还	-8662
安迪	-8663
宜人	-8664
宝贵	-8665
局面	-8666
巴西	-8667
带领	-8668
年至	-8669
应急	-8670
延迟	-8671
建模	-8672
待遇	-8673
慈善	-8674
慷慨	-8675
成了	-8676
所著	-8677
手套	-8678
手术	-8679
拟合	-8680
描写	-8681
提问	-8682
搭载	-8683
放进	-8684
敏锐	-8685
整理	-8686
无比	-8687
昆虫	-8688
星座	-8689
普吉	-8690
暴雨	-8691
更大	-8692
最初	-8693
杯中	-8694
松饼	-8695
极其	-8696
柔和	-8697
桥梁	-8698
民族	-8699
法式	-8700
涌现	-8701
清凉	-8702
清晨	-8703
漂流	-8704
炒饭	-8705
煎蛋	-8706
王五	-8707
盈利	-8708
看书	-8709
看待	-8710
着手	-8711
矩阵	-8712
石油	-8713
神话	-8714
福特	-8715
等级	-8716
简约	-8717
简述	-8718
算术	-8719
精心	-8720
糖和	-8721
而非	-8722
脚本	-8723
膨胀	-8724
花卉	-8725
补全	-8726
衬衫	-8727
记者	-8728
走势	-8729
跟随	-8730
辆车	-8731
边界	-8732
迷路	-8733
逃避	-8734
都很	-8735
金属	-8736
金色	-8737
钓鱼	-8738
钱包	-8739
长达	-8740
闪烁	-8741
阻止	-8742
静谧	-8743
香味	-8744
骑行	-8745
麻烦	-8746
龙卷	-8747
1-2	-8748
618	-8749
800	-8750
:1.	-8751
API	-8752
Air	-8753
arl	-8754
cus	-8755
ife	-8756
ips	-8757
net	-8758
ole	-8759
ten	-8760
ull	-8761
une	-8762
▁--	-8763
▁Bl	-8764
▁On	-8765
▁Sw	-8766
▁da	-8767
▁no	-8768
▁东京	-8769
▁价格	-8770
▁同时	-8771
▁在家	-8772
▁天气	-8773
▁安排	-8774
▁小刚	-8775
▁小说	-8776
▁总体	-8777
▁我会	-8778
▁控制	-8779
▁推广	-8780
▁无论	-8781
▁景点	-8782
▁更正	-8783
▁有机	-8784
▁活动	-8785
▁现在	-8786
▁表示	-8787
▁这里	-8788
▁马克	-8789
▁鸡蛋	-8790
与他们	-8791
两句话	-8792
为基础	-8793
也没有	-8794
也逐渐	-8795
买了一	-8796
了解了	-8797
人类和	-8798
代表着	-8799
以改善	-8800
传感器	-8801
你是否	-8802
你知道	-8803
促进了	-8804
减少了	-8805
分别为	-8806
勇敢的	-8807
发挥着	-8808
和价格	-8809
和计划	-8810
和软件	-8811
和酒店	-8812
和音乐	-8813
咖啡因	-8814
固定的	-8815
在其中	-8816
在购买	-8817
墨西哥	-8818
女神像	-8819
如果不	-8820
如果有	-8821
它已经	-8822
实践中	-8823
家庭和	-8824
市场和	-8825
并制定	-8826
并寻找	-8827
并逐渐	-8828
应用的	-8829
开发出	-8830
思维和	-8831
性能和	-8832
意识和	-8833
指南针	-8834
描述性	-8835
收益率	-8836
数字和	-8837
数百万	-8838
方法和	-8839
是当今	-8840
是星期	-8841
更健康	-8842
有关的	-8843
朋友们	-8844
正确地	-8845
没关系	-8846
浅草寺	-8847
烤盘上	-8848
煮熟的	-8849
生命中	-8850
电影和	-8851
的人口	-8852
的人才	-8853
的定义	-8854
的市场	-8855
的游戏	-8856
的状态	-8857
的美景	-8858
的衣服	-8859
的话题	-8860
的限制	-8861
研究中	-8862
等任务	-8863
等功能	-8864
答案是	-8865
红楼梦	-8866
细节和	-8867
美国的	-8868
耐心和	-8869
联系人	-8870
肌肉和	-8871
自适应	-8872
艺术和	-8873
苹果和	-8874
评分和	-8875
词汇和	-8876
诺贝尔	-8877
购买的	-8878
这也是	-8879
长长的	-8880
集中在	-8881
面对面	-8882
鸡蛋和	-8883
****	-8884
1984	-8885
2010	-8886
555-	-8887
Sara	-8888
ause	-8889
enny	-8890
less	-8891
line	-8892
qual	-8893
reak	-8894
ving	-8895
▁56,	-8896
▁89,	-8897
▁90,	-8898
▁IMD	-8899
▁lst	-8900
▁mag	-8901
▁may	-8902
▁old	-8903
▁var	-8904
▁你需要	-8905
▁如果您	-8906
▁将一段	-8907
▁感谢您	-8908
▁阿凡达	-8909
一个人的	-8910
也在不断	-8911
也带来了	-8912
人们对于	-8913
令人难以	-8914
以下文章	-8915
使其成为	-8916
使计算机	-8917
全球性的	-8918
准备好了	-8919
原始文本	-8920
去中心化	-8921
发现了一	-8922
可以增强	-8923
可以按照	-8924
可能存在	-8925
吸引人的	-8926
哪些方面	-8927
喜剧电影	-8928
在自己的	-8929
地球上的	-8930
城市中心	-8931
塑料制品	-8932
塑料污染	-8933
太阳能和	-8934
如何影响	-8935
客户体验	-8936
尝试一下	-8937
帮助他们	-8938
平底锅中	-8939
建筑之一	-8940
我一定会	-8941
我的家人	-8942
推荐系统	-8943
提供一份	-8944
文学创作	-8945
旅行计划	-8946
时间旅行	-8947
更加流畅	-8948
有害物质	-8949
机器能够	-8950
极端气候	-8951
游客前来	-8952
特征提取	-8953
环保措施	-8954
的单词是	-8955
的反义词	-8956
精神状态	-8957
经验丰富	-8958
自动化和	-8959
要求模型	-8960
负面评价	-8961
贵公司的	-8962
这些挑战	-8963
这些数据	-8964
这些行星	-8965
这本小说	-8966
进行语法	-8967
避免过度	-8968
销售报告	-8969
问题需要	-8970
ident	-8971
oming	-8972
phant	-8973
▁2019	-8974
▁2020	-8975
▁Text	-8976
▁data	-8977
▁does	-8978
▁elit	-8979
▁está	-8980
▁公司名称	-8981
▁提供一篇	-8982
▁根据一组	-8983
▁电影标题	-8984
▁给出三个	-8985
世界著名的	-8986
人工智能将	-8987
充满活力和	-8988
在医疗领域	-8989
在金融领域	-8990
帮助和支持	-8991
并简要介绍	-8992
我们可以从	-8993
我非常喜欢	-8994
最小公倍数	-8995
每个人都有	-8996
的准确性和	-8997
的工作环境	-8998
的时间管理	-8999
相关的问题	-9000
简短的描述	-9001
获得更多的	-9002
负面或中性	-9003
足够的时间	-9004
适合自己的	-9005
选择适当的	-9006
atural	-9007
ercise	-9008
espite	-9009
redict	-9010
▁Verse	-9011
▁clear	-9012
▁input	-9013
▁pizza	-9014
▁smart	-9015
▁three	-9016
▁where	-9017
人工智能已经	-9018
健康生活方式	-9019
听起来很有趣	-9020
很高兴认识你	-9021
我们可以采取	-9022
生成一篇短文	-9023
▁before	-9024
▁regard	-9025
▁social	-9026
▁给出一个关于	-9027
▁给出两个数字	-9028
你最喜欢的电影	-9029
训练集和测试集	-9030
▁discuss	-9031
▁history	-9032
▁improve	-9033
▁morning	-9034
▁playing	-9035
▁product	-9036
▁working	-9037
▁根据提供的文本	-9038
▁根据给定的文章	-9039
▁password	-9040
计算它们之间的天数	-9041
""	-9042
$,	-9043
(3	-9044
,"	-9045
32	-9046
39	-9047
47	-9048
Me	-9049
TF	-9050
YY	-9051
ck	-9052
ns	-9053
▁→	-9054
▁阿	-9055
一周	-9056
一块	-9057
一支	-9058
一群	-9059
万里	-9060
不停	-9061
不利	-9062
不见	-9063
不适	-9064
丧失	-9065
义务	-9066
乡村	-9067
他也	-9068
你将	-9069
储存	-9070
光滑	-9071
公路	-9072
关爱	-9073
农药	-9074
冰块	-9075
出席	-9076
加法	-9077
动机	-9078
华氏	-9079
南瓜	-9080
原力	-9081
原来	-9082
发电	-9083
发音	-9084
可乐	-9085
命名	-9086
哥伦	-9087
喷雾	-9088
器械	-9089
地走	-9090
坚信	-9091
型号	-9092
壮观	-9093
声明	-9094
复苏	-9095
大师	-9096
大海	-9097
大象	-9098
奔跑	-9099
官方	-9100
定理	-9101
崛起	-9102
市民	-9103
帽子	-9104
干酪	-9105
年内	-9106
年度	-9107
并非	-9108
幸运	-9109
应当	-9110
开会	-9111
弥漫	-9112
很少	-9113
忽略	-9114
您将	-9115
手册	-9116
打动	-9117
打折	-9118
打散	-9119
摩根	-9120
数千	-9121
料理	-9122
料酒	-9123
施工	-9124
更换	-9125
标出	-9126
样式	-9127
椅子	-9128
汉字	-9129
汉语	-9130
深受	-9131
湖泊	-9132
湿度	-9133
火锅	-9134
烤肉	-9135
烦恼	-9136
爵士	-9137
牧羊	-9138
特性	-9139
猎犬	-9140
王明	-9141
球和	-9142
生机	-9143
用手	-9144
盛开	-9145
短期	-9146
社团	-9147
空白	-9148
空调	-9149
立方	-9150
篡改	-9151
粒子	-9152
纳美	-9153
缩写	-9154
考验	-9155
耳朵	-9156
航天	-9157
艰难	-9158
芒果	-9159
行政	-9160
衣物	-9161
西装	-9162
西部	-9163
角质	-9164
解析	-9165
诗句	-9166
说服	-9167
读取	-9168
谷类	-9169
跨越	-9170
身上	-9171
辐射	-9172
迁移	-9173
运作	-9174
还将	-9175
这让	-9176
远方	-9177
连词	-9178
野外	-9179
问卷	-9180
闰年	-9181
防晒	-9182
随后	-9183
音箱	-9184
题材	-9185
食肉	-9186
香肠	-9187
骑士	-9188
黑镜	-9189
600	-9190
:30	-9191
IIT	-9192
XYZ	-9193
air	-9194
ald	-9195
cap	-9196
cle	-9197
hui	-9198
oll	-9199
oss	-9200
pre	-9201
ron	-9202
ual	-9203
▁21	-9204
▁De	-9205
▁Ma	-9206
▁Or	-9207
▁es	-9208
▁{"	-9209
▁中性	-9210
▁小吃	-9211
▁性别	-9212
▁技术	-9213
▁每个	-9214
▁测试	-9215
▁添加	-9216
▁类型	-9217
▁设定	-9218
▁设置	-9219
▁词语	-9220
▁请用	-9221
▁预算	-9222
中性的	-9223
中提取	-9224
也能够	-9225
以及对	-9226
休息和	-9227
但是在	-9228
你一定	-9229
你喜欢	-9230
依赖于	-9231
像人类	-9232
共同点	-9233
内完成	-9234
减少对	-9235
出现在	-9236
出生于	-9237
创意和	-9238
动物的	-9239
北极熊	-9240
华丽的	-9241
单词和	-9242
发明了	-9243
可以对	-9244
和价值	-9245
和处理	-9246
和研究	-9247
和维护	-9248
和道德	-9249
喜爱的	-9250
在比赛	-9251
在海边	-9252
如果是	-9253
存在着	-9254
季节是	-9255
宇宙中	-9256
安全的	-9257
实用的	-9258
对它们	-9259
对这些	-9260
小说的	-9261
尽全力	-9262
工作了	-9263
干旱和	-9264
并了解	-9265
并具有	-9266
并生成	-9267
并确定	-9268
并解决	-9269
幸福感	-9270
思想和	-9271
您所在	-9272
您是否	-9273
我们去	-9274
持续的	-9275
探测器	-9276
摄入量	-9277
教育的	-9278
无尽的	-9279
日下午	-9280
极大地	-9281
柠檬汁	-9282
橙色的	-9283
歌剧院	-9284
热情和	-9285
王先生	-9286
生活和	-9287
电影或	-9288
的了解	-9289
的交流	-9290
的代表	-9291
的力量	-9292
的技巧	-9293
的概念	-9294
的象征	-9295
真的吗	-9296
短文本	-9297
离开了	-9298
给自己	-9299
绿色的	-9300
老太太	-9301
行业和	-9302
行为的	-9303
表现得	-9304
被用来	-9305
装饰品	-9306
讲一个	-9307
语言和	-9308
这首歌	-9309
适度的	-9310
银行家	-9311
需求的	-9312
预测的	-9313
龙卷风	-9314
Alan	-9315
azon	-9316
iles	-9317
inda	-9318
ouse	-9319
rank	-9320
▁15.	-9321
▁18,	-9322
▁32,	-9323
▁34,	-9324
▁Day	-9325
▁ach	-9326
▁age	-9327
▁bel	-9328
▁ent	-9329
▁fib	-9330
▁que	-9331
▁saw	-9332
▁sec	-9333
▁形容词	-9334
▁我今天	-9335
▁纽约市	-9336
一种新的	-9337
一首诗歌	-9338
不可避免	-9339
不用客气	-9340
专业知识	-9341
个人品牌	-9342
个人成长	-9343
互联网上	-9344
人们生活	-9345
人机交互	-9346
他遇到了	-9347
传统文化	-9348
但不限于	-9349
你为什么	-9350
你的名字	-9351
使用手机	-9352
其中一些	-9353
写作技巧	-9354
减少浪费	-9355
创业公司	-9356
初创企业	-9357
判断它们	-9358
印象深刻	-9359
可以进行	-9360
合作关系	-9361
同义词或	-9362
和蛋白质	-9363
因为这些	-9364
在过去的	-9365
均衡饮食	-9366
字符串中	-9367
实际情况	-9368
对公司的	-9369
工作流程	-9370
度过一个	-9371
很高兴能	-9372
感激之情	-9373
所有包含	-9374
手工艺品	-9375
接下来的	-9376
旅游胜地	-9377
日常任务	-9378
是否能够	-9379
智能设备	-9380
最受欢迎	-9381
最常见的	-9382
有更多的	-9383
浪费时间	-9384
潜在风险	-9385
热门话题	-9386
的需求和	-9387
看起来很	-9388
社交网络	-9389
自然景观	-9390
自由职业	-9391
让我们的	-9392
该公司的	-9393
语法正确	-9394
输入文本	-9395
这个世界	-9396
这些措施	-9397
这是一段	-9398
逗号分隔	-9399
通过使用	-9400
错误拼写	-9401
需要加强	-9402
项目经理	-9403
顺序排序	-9404
领域中的	-9405
Excel	-9406
asing	-9407
chool	-9408
ected	-9409
ength	-9410
ivers	-9411
ivide	-9412
jourd	-9413
learn	-9414
night	-9415
ought	-9416
ready	-9417
ridge	-9418
split	-9419
▁2018	-9420
▁Lear	-9421
▁Musk	-9422
▁Shaw	-9423
▁Your	-9424
▁both	-9425
▁dist	-9426
▁each	-9427
▁feel	-9428
▁here	-9429
▁jazz	-9430
▁last	-9431
▁real	-9432
▁requ	-9433
▁task	-9434
▁team	-9435
▁them	-9436
▁原始文章	-9437
▁数字列表	-9438
▁生成一组	-9439
一些挑战和	-9440
与之相关的	-9441
严重的问题	-9442
从而更好地	-9443
保护自己的	-9444
像人类一样	-9445
可以更好地	-9446
可以让我们	-9447
各种各样的	-9448
和工作方式	-9449
和语法错误	-9450
对身体健康	-9451
工作效率和	-9452
巴黎圣母院	-9453
建立良好的	-9454
必不可少的	-9455
我可以帮你	-9456
是一个非常	-9457
有助于提高	-9458
机遇和挑战	-9459
标点符号和	-9460
气候变化和	-9461
物联网技术	-9462
的电子邮件	-9463
社交媒体的	-9464
素食主义者	-9465
自己喜欢的	-9466
自己的情绪	-9467
艾菲尔铁塔	-9468
进行适当的	-9469
问题的答案	-9470
非垃圾邮件	-9471
append	-9472
atures	-9473
gether	-9474
ounter	-9475
ything	-9476
▁Brown	-9477
▁benef	-9478
▁energ	-9479
▁focus	-9480
▁heart	-9481
▁think	-9482
▁water	-9483
▁给定一句话	-9484
创建一个新的	-9485
包括但不限于	-9486
可以帮助企业	-9487
在日常生活中	-9488
基因编辑技术	-9489
太阳能和风能	-9490
是至关重要的	-9491
深度学习算法	-9492
燃烧化石燃料	-9493
社交媒体上的	-9494
编写一个程序	-9495
Alanine	-9496
emption	-9497
▁Google	-9498
▁jumped	-9499
▁给定一组数据	-9500
听起来很有前途	-9501
自然语言处理和	-9502
▁already	-9503
▁society	-9504
▁将以下两个句子	-9505
▁根据给定的两个	-9506
得到了广泛的应用	-9507
▁American	-9508
▁datetime	-9509
▁together	-9510
▁tomorrow	-9511
两个日期之间的天数	-9512
ranslation	-9513
▁总结下面这段文本的摘要	-9514
$。	-9515
69	-9516
:-	-9517
:¥	-9518
Bl	-9519
Ed	-9520
El	-9521
Sh	-9522
We	-9523
br	-9524
cc	-9525
ky	-9526
ée	-9527
▁!	-9528
▁到	-9529
▁去	-9530
▁哦	-9531
▁花	-9532
三次	-9533
不受	-9534
不变	-9535
不在	-9536
不容	-9537
不幸	-9538
中式	-9539
为止	-9540
为食	-9541
丽莎	-9542
义句	-9543
了很	-9544
五言	-9545
亚历	-9546
京东	-9547
人造	-9548
但这	-9549
体积	-9550
体能	-9551
你要	-9552
依据	-9553
儿子	-9554
光的	-9555
入到	-9556
全身	-9557
公布	-9558
兰克	-9559
冲击	-9560
几种	-9561
加深	-9562
助理	-9563
区的	-9564
即时	-9565
压实	-9566
口碑	-9567
可信	-9568
可用	-9569
后续	-9570
呼吁	-9571
售后	-9572
器材	-9573
噪音	-9574
回应	-9575
在该	-9576
士尼	-9577
复制	-9578
外出	-9579
多余	-9580
大街	-9581
如同	-9582
守护	-9583
宏伟	-9584
密斯	-9585
对比	-9586
导师	-9587
将来	-9588
小偷	-9589
小雨	-9590
尺码	-9591
岛上	-9592
岩石	-9593
常规	-9594
并从	-9595
并使	-9596
并向	-9597
开业	-9598
引领	-9599
弗里	-9600
强壮	-9601
当下	-9602
彩虹	-9603
德拉	-9604
快捷	-9605
患有	-9606
感恩	-9607
我所	-9608
投放	-9609
抱怨	-9610
抽象	-9611
拓宽	-9612
提琴	-9613
改成	-9614
新手	-9615
无助	-9616
日历	-9617
曲目	-9618
有了	-9619
权利	-9620
松鼠	-9621
极地	-9622
枫叶	-9623
树上	-9624
根源	-9625
梦境	-9626
模糊	-9627
汇率	-9628
法和	-9629
消化	-9630
淀粉	-9631
清水	-9632
滑雪	-9633
点的	-9634
热点	-9635
照明	-9636
爬行	-9637
版权	-9638
牛仔	-9639
的精	-9640
皮书	-9641
看来	-9642
矛盾	-9643
确切	-9644
科普	-9645
科研	-9646
秘诀	-9647
红薯	-9648
约会	-9649
线路	-9650
绝望	-9651
编译	-9652
网页	-9653
罗勒	-9654
罗琳	-9655
而在	-9656
而成	-9657
背后	-9658
能在	-9659
自尊	-9660
艾伦	-9661
花环	-9662
草稿	-9663
荣誉	-9664
萨克	-9665
蒂姆	-9666
蛋液	-9667
表情	-9668
装置	-9669
讲座	-9670
谋杀	-9671
趣味	-9672
身于	-9673
这部	-9674
进了	-9675
逃离	-9676
遗迹	-9677
那我	-9678
金毛	-9679
金额	-9680
闪闪	-9681
降雨	-9682
雕塑	-9683
音效	-9684
风吹	-9685
风味	-9686
飞速	-9687
高速	-9688
鲨鱼	-9689
,10	-9690
1.5	-9691
Amy	-9692
TML	-9693
ech	-9694
ffy	-9695
hot	-9696
irl	-9697
ode	-9698
oin	-9699
por	-9700
rad	-9701
ube	-9702
uro	-9703
ved	-9704
▁Cl	-9705
▁av	-9706
▁一些	-9707
▁健康	-9708
▁公里	-9709
▁出发	-9710
▁参加	-9711
▁取出	-9712
▁情境	-9713
▁打开	-9714
▁提取	-9715
▁更改	-9716
▁法国	-9717
▁游戏	-9718
▁热锅	-9719
▁物品	-9720
▁管理	-9721
▁给予	-9722
▁自我	-9723
▁谷歌	-9724
▁面包	-9725
与我们	-9726
个句子	-9727
中包含	-9728
为患者	-9729
为正面	-9730
也不会	-9731
也喜欢	-9732
事务所	-9733
位置和	-9734
你如何	-9735
其含义	-9736
其影响	-9737
内容和	-9738
内部的	-9739
分别是	-9740
列举出	-9741
制造商	-9742
动物园	-9743
发布的	-9744
可可粉	-9745
史上最	-9746
和帮助	-9747
和探索	-9748
和数字	-9749
和环保	-9750
喜欢在	-9751
困难和	-9752
在当今	-9753
在现代	-9754
处理器	-9755
复合句	-9756
外行星	-9757
太棒了	-9758
好奇心	-9759
姓名和	-9760
孤独的	-9761
学习了	-9762
宝贵的	-9763
将一个	-9764
工具来	-9765
已有的	-9766
希望和	-9767
并不断	-9768
并决定	-9769
并增加	-9770
并最终	-9771
并添加	-9772
并采取	-9773
开发的	-9774
当地人	-9775
很快就	-9776
很高的	-9777
我打算	-9778
或多个	-9779
房间里	-9780
找不到	-9781
找到并	-9782
描绘了	-9783
摇尾巴	-9784
收到了	-9785
时间为	-9786
时间是	-9787
是由于	-9788
普吉岛	-9789
更喜欢	-9790
更适合	-9791
最大化	-9792
有为的	-9793
朋友或	-9794
来参加	-9795
来确定	-9796
标题为	-9797
模型来	-9798
模式和	-9799
求职者	-9800
流畅性	-9801
深厚的	-9802
演唱会	-9803
漫长的	-9804
热量的	-9805
留下了	-9806
的一切	-9807
的一部	-9808
的人生	-9809
的人群	-9810
的例子	-9811
的发明	-9812
的地球	-9813
的支持	-9814
的效率	-9815
的歌曲	-9816
的科技	-9817
的答案	-9818
的精神	-9819
的表现	-9820
的距离	-9821
的食谱	-9822
目标值	-9823
相似性	-9824
第三方	-9825
等待着	-9826
简单而	-9827
管理者	-9828
经济的	-9829
美好和	-9830
而这些	-9831
联合国	-9832
草地上	-9833
让观众	-9834
请使用	-9835
请根据	-9836
达到了	-9837
还具有	-9838
连贯性	-9839
迪士尼	-9840
都非常	-9841
阳光下	-9842
随机的	-9843
食材和	-9844
香草精	-9845
鸢尾花	-9846
1994	-9847
6666	-9848
Spot	-9849
alse	-9850
arks	-9851
ases	-9852
ebra	-9853
iant	-9854
ided	-9855
iver	-9856
orge	-9857
ween	-9858
▁0.7	-9859
▁Fox	-9860
▁Man	-9861
▁Mic	-9862
▁dis	-9863
▁him	-9864
▁lov	-9865
▁sat	-9866
▁sin	-9867
▁sug	-9868
▁tem	-9869
▁为一家	-9870
▁答案是	-9871
一份工作	-9872
一组单词	-9873
下列句子	-9874
与魔法石	-9875
中文句子	-9876
了解你的	-9877
交通拥堵	-9878
产品质量	-9879
从小到大	-9880
代码示例	-9881
以使其更	-9882
但我认为	-9883
全球各地	-9884
公司名称	-9885
初创公司	-9886
包括至少	-9887
医疗服务	-9888
医疗行业	-9889
可以尝试	-9890
可以让你	-9891
各种领域	-9892
品尝美食	-9893
回家的路	-9894
回收利用	-9895
因素之一	-9896
在旅途中	-9897
在未来的	-9898
大量数据	-9899
安排时间	-9900
定期进行	-9901
尤其是在	-9902
带来许多	-9903
广泛关注	-9904
应对措施	-9905
徒步旅行	-9906
我们最近	-9907
所未有的	-9908
无法提供	-9909
更加注重	-9910
最佳实践	-9911
最小值和	-9912
有一定的	-9913
有很大的	-9914
模型将其	-9915
欢迎来到	-9916
段落中的	-9917
每个任务	-9918
混合均匀	-9919
潜在影响	-9920
爬行动物	-9921
猫科动物	-9922
现代主义	-9923
现实世界	-9924
生日快乐	-9925
电影剧本	-9926
的字符串	-9927
的标题和	-9928
的环境中	-9929
睡眠不足	-9930
英文短语	-9931
英语句子	-9932
蔬菜沙拉	-9933
行动计划	-9934
解释一下	-9935
讨论一下	-9936
让我看看	-9937
训练好的	-9938
训练计划	-9939
讲述一个	-9940
讲述了一	-9941
识别技术	-9942
该单词的	-9943
身体状况	-9944
身体素质	-9945
还有其他	-9946
进一步的	-9947
重大影响	-9948
重新审视	-9949
阿尔伯特	-9950
项目管理	-9951
风险评估	-9952
James	-9953
Susan	-9954
asket	-9955
luffy	-9956
phone	-9957
shank	-9958
▁100)	-9959
▁City	-9960
▁Lazy	-9961
▁Open	-9962
▁[10,	-9963
▁back	-9964
▁come	-9965
▁dans	-9966
▁miss	-9967
▁nice	-9968
▁prof	-9969
▁trad	-9970
▁user	-9971
▁世界上最	-9972
▁给出一句	-9973
下一个数字	-9974
个随机整数	-9975
使用适当的	-9976
公司的财务	-9977
其中的所有	-9978
可能带来的	-9979
各种不同的	-9980
如何在家里	-9981
学生的学习	-9982
完成的任务	-9983
完整的句子	-9984
并提供一些	-9985
我们生活的	-9986
改变我们的	-9987
方面的问题	-9988
有着丰富的	-9989
机器学习是	-9990
机器学习的	-9991
沟通和协作	-9992
混合物倒入	-9993
相关的文章	-9994
竞争激烈的	-9995
组合成一个	-9996
美丽的海滩	-9997
计算机技术	-9998
选项中选择	-9999
需要大量的	-10000
ending	-10001
▁Jumps	-10002
▁Quick	-10003
▁Today	-10004
▁analy	-10005
▁appro	-10006
▁break	-10007
▁early	-10008
▁gramm	-10009
▁needs	-10010
▁paper	-10011
▁spell	-10012
▁解释什么是	-10013
▁请提供一个	-10014
人工智能领域	-10015
及其出现次数	-10016
在公园里散步	-10017
在现代社会中	-10018
在这个过程中	-10019
对我们的生活	-10020
将其中所有的	-10021
数字的平均值	-10022
每个人的责任	-10023
泄露个人信息	-10024
生成一篇关于	-10025
的单词或短语	-10026
的历史和文化	-10027
让它自然而然	-10028
1234567	-10029
▁Please	-10030
▁energy	-10031
▁errors	-10032
▁person	-10033
▁生成一个描述	-10034
▁给出一个主题	-10035
▁给出一段文本	-10036
▁给定两个句子	-10037
▁编写一个程序	-10038
▁肖申克的救赎	-10039
人工智能领域的	-10040
我们需要更多的	-10041
软件开发工程师	-10042
选择适合自己的	-10043
Facebook	-10044
Samantha	-10045
▁student	-10046
人工智能可以通过	-10047
按照字母顺序排序	-10048
Instagram	-10049
▁Learning	-10050
▁exercise	-10051
▁experien	-10052
▁interest	-10053
▁Shawshank	-10054
▁yesterday	-10055
▁Redemption	-10056
人工智能技术的不断发展	-10057
49	-10058
54	-10059
87	-10060
CT	-10061
II	-10062
RL	-10063
ae	-10064
de	-10065
go	-10066
hi	-10067
lt	-10068
ml	-10069
ss	-10070
uy	-10071
▁_	-10072
▁但	-10073
▁低	-10074
▁古	-10075
一番	-10076
主流	-10077
之下	-10078
之以	-10079
之美	-10080
乐曲	-10081
交付	-10082
人数	-10083
介于	-10084
仍在	-10085
传奇	-10086
伦萨	-10087
但却	-10088
体检	-10089
作息	-10090
佩戴	-10091
保养	-10092
储备	-10093
全文	-10094
公寓	-10095
共识	-10096
凉爽	-10097
减排	-10098
分组	-10099
剪纸	-10100
勺子	-10101
半径	-10102
单一	-10103
单独	-10104
卡梅	-10105
反复	-10106
变色	-10107
可选	-10108
台词	-10109
吐司	-10110
含量	-10111
和大	-10112
售价	-10113
四舍	-10114
团结	-10115
城镇	-10116
壮丽	-10117
外语	-10118
天的	-10119
夸奖	-10120
夸张	-10121
妙招	-10122
学和	-10123
它有	-10124
宇航	-10125
安娜	-10126
宫殿	-10127
家和	-10128
寻常	-10129
将它	-10130
尔特	-10131
尤为	-10132
山区	-10133
巨人	-10134
已有	-10135
布拉	-10136
康复	-10137
延长	-10138
心跳	-10139
忘了	-10140
恶龙	-10141
成年	-10142
或是	-10143
手动	-10144
托弗	-10145
找我	-10146
指环	-10147
振动	-10148
插座	-10149
放上	-10150
无人	-10151
日的	-10152
时分	-10153
晚饭	-10154
最具	-10155
最早	-10156
李白	-10157
束缚	-10158
柏林	-10159
柔韧	-10160
根本	-10161
格兰	-10162
植被	-10163
款式	-10164
正向	-10165
步数	-10166
殖民	-10167
母语	-10168
水的	-10169
注册	-10170
洞察	-10171
活着	-10172
潜水	-10173
火场	-10174
灰色	-10175
炒蛋	-10176
烘焙	-10177
烤至	-10178
王国	-10179
生抽	-10180
用法	-10181
疑问	-10182
登录	-10183
盆栽	-10184
目录	-10185
看似	-10186
离不	-10187
移民	-10188
稳健	-10189
窗户	-10190
竞赛	-10191
第四	-10192
策划	-10193
签署	-10194
粉丝	-10195
级的	-10196
给他	-10197
美术	-10198
美观	-10199
职务	-10200
聚集	-10201
肩膀	-10202
背包	-10203
膝盖	-10204
英勇	-10205
莫扎	-10206
菜和	-10207
虚构	-10208
裤子	-10209
要多	-10210
警探	-10211
试着	-10212
说说	-10213
调用	-10214
谈论	-10215
赞誉	-10216
走出	-10217
起伏	-10218
辩论	-10219
达尔	-10220
过量	-10221
远远	-10222
逆序	-10223
遗憾	-10224
配上	-10225
重建	-10226
问我	-10227
防控	-10228
附件	-10229
附加	-10230
降落	-10231
集团	-10232
露营	-10233
面上	-10234
顶尖	-10235
预定	-10236
预约	-10237
题为	-10238
风控	-10239
风雨	-10240
饮水	-10241
香气	-10242
马特	-10243
驱动	-10244
骑车	-10245
高盐	-10246
鲜艳	-10247
2-3	-10248
700	-10249
SQL	-10250
amp	-10251
arm	-10252
hys	-10253
mov	-10254
ogn	-10255
pos	-10256
pro	-10257
ral	-10258
ume	-10259
uto	-10260
vec	-10261
▁(3	-10262
▁22	-10263
▁Ar	-10264
▁Hi	-10265
▁Wi	-10266
▁cr	-10267
▁dr	-10268
▁ré	-10269
▁ut	-10270
▁为我	-10271
▁人们	-10272
▁人生	-10273
▁创造	-10274
▁太阳	-10275
▁客户	-10276
▁应该	-10277
▁您的	-10278
▁文档	-10279
▁日本	-10280
▁检查	-10281
▁秋天	-10282
▁简介	-10283
▁结束	-10284
▁词汇	-10285
▁购买	-10286
▁身高	-10287
▁这款	-10288
▁食品	-10289
▁鸡肉	-10290
一个有	-10291
一切都	-10292
一段话	-10293
一起玩	-10294
不仅是	-10295
不满意	-10296
与当地	-10297
个人和	-10298
中没有	-10299
为他们	-10300
为环保	-10301
享受着	-10302
他必须	-10303
他经常	-10304
以支持	-10305
会遇到	-10306
但由于	-10307
低脂肪	-10308
作者是	-10309
你自己	-10310
使我们	-10311
使用户	-10312
养宠物	-10313
几分钟	-10314
函数将	-10315
则输出	-10316
功能的	-10317
卡梅隆	-10318
变得更	-10319
只有在	-10320
吸引着	-10321
和交流	-10322
和冥想	-10323
和教育	-10324
和旅游	-10325
和购买	-10326
和预防	-10327
喜剧片	-10328
四舍五	-10329
围绕着	-10330
在不同	-10331
在当地	-10332
城市中	-10333
增长率	-10334
她喜欢	-10335
寒冷的	-10336
导演和	-10337
将所有	-10338
帮助我	-10339
平衡和	-10340
并促进	-10341
并考虑	-10342
并鼓励	-10343
幽默的	-10344
应用中	-10345
度假村	-10346
引发了	-10347
弗兰克	-10348
弗里曼	-10349
归类为	-10350
形成了	-10351
影响着	-10352
忠诚度	-10353
快乐和	-10354
怎样的	-10355
想知道	-10356
想要的	-10357
感人的	-10358
感到很	-10359
成本和	-10360
我决定	-10361
我明白	-10362
我理解	-10363
我的狗	-10364
我看到	-10365
把它们	-10366
指环王	-10367
推出了	-10368
时间在	-10369
更全面	-10370
最接近	-10371
有益的	-10372
来吸引	-10373
来查找	-10374
来获取	-10375
来评估	-10376
杯咖啡	-10377
杰出的	-10378
污染和	-10379
沙发上	-10380
活动等	-10381
浓厚的	-10382
消极的	-10383
游泳池	-10384
片面包	-10385
现在的	-10386
生物的	-10387
病人的	-10388
白色的	-10389
的专业	-10390
的中心	-10391
的分类	-10392
的制作	-10393
的商业	-10394
的场景	-10395
的外观	-10396
的意义	-10397
的技能	-10398
的效果	-10399
的标志	-10400
的气息	-10401
的演讲	-10402
的社会	-10403
的美丽	-10404
相对论	-10405
社交圈	-10406
积极地	-10407
空间站	-10408
等方法	-10409
结束后	-10410
罗宾斯	-10411
见到您	-10412
证号码	-10413
该文章	-10414
趋势和	-10415
运动鞋	-10416
还应该	-10417
这包括	-10418
这对于	-10419
这方面	-10420
这是我	-10421
这辆车	-10422
进行的	-10423
适应新	-10424
那我们	-10425
银河系	-10426
闪闪发	-10427
陈述句	-10428
降低患	-10429
非常棒	-10430
顾客的	-10431
饮食中	-10432
高强度	-10433
2,3,	-10434
2017	-10435
True	-10436
athy	-10437
atic	-10438
comm	-10439
eran	-10440
ivot	-10441
oods	-10442
orem	-10443
play	-10444
port	-10445
ract	-10446
rent	-10447
▁13.	-10448
▁42,	-10449
▁80,	-10450
▁Ear	-10451
▁Mon	-10452
▁Rob	-10453
▁det	-10454
▁dev	-10455
▁dig	-10456
▁ple	-10457
▁pub	-10458
▁rad	-10459
▁vel	-10460
▁很高兴	-10461
▁意大利	-10462
▁最小值	-10463
▁鸡胸肉	-10464
一些缺点	-10465
一份简历	-10466
一种新型	-10467
一组文本	-10468
三个单词	-10469
不同种类	-10470
与此同时	-10471
什么样的	-10472
以下措施	-10473
休闲娱乐	-10474
佛罗伦萨	-10475
你的观点	-10476
保持平衡	-10477
元音字母	-10478
充满活力	-10479
几个小时	-10480
出版日期	-10481
动画电影	-10482
医疗诊断	-10483
去了公园	-10484
可以找到	-10485
可以看到	-10486
可以采用	-10487
可能包括	-10488
各个方面	-10489
否则输出	-10490
和价值观	-10491
城市名称	-10492
塑料袋和	-10493
如何应对	-10494
学习音乐	-10495
它们可以	-10496
安全性和	-10497
家庭生活	-10498
工业革命	-10499
工作任务	-10500
工作方式	-10501
市场上的	-10502
平均气温	-10503
建议选择	-10504
影响力的	-10505
循环经济	-10506
心理状态	-10507
恐怖电影	-10508
我们才能	-10509
我是小明	-10510
拥有一个	-10511
拼写检查	-10512
排序算法	-10513
提供各种	-10514
提供支持	-10515
提高能源	-10516
播放列表	-10517
数据安全	-10518
无论是在	-10519
是一部由	-10520
是否存在	-10521
更多细节	-10522
最佳影片	-10523
最大值为	-10524
有不同的	-10525
构建一个	-10526
正在迅速	-10527
每周至少	-10528
气温升高	-10529
注意事项	-10530
流行歌曲	-10531
流行音乐	-10532
爱因斯坦	-10533
生成一组	-10534
用户可以	-10535
用户提供	-10536
疾病诊断	-10537
的基础上	-10538
的影响和	-10539
的效率和	-10540
看电影和	-10541
研究成果	-10542
研究结果	-10543
科技进步	-10544
经典之作	-10545
美好时光	-10546
能够提供	-10547
自我介绍	-10548
英文翻译	-10549
获得成功	-10550
营养成分	-10551
营养物质	-10552
营销计划	-10553
被应用于	-10554
许多挑战	-10555
许多领域	-10556
语音信号	-10557
资金支持	-10558
越来越高	-10559
辅助医生	-10560
这听起来	-10561
这种技术	-10562
进行纠正	-10563
进行训练	-10564
销售团队	-10565
需要一些	-10566
需要通过	-10567
预测未来	-10568
食肉动物	-10569
饱和脂肪	-10570
10000	-10571
Jerry	-10572
aving	-10573
berry	-10574
ework	-10575
ledge	-10576
ribut	-10577
▁Dark	-10578
▁List	-10579
▁avec	-10580
▁conc	-10581
▁grow	-10582
▁moon	-10583
▁sing	-10584
▁suis	-10585
▁作为一个	-10586
▁意大利面	-10587
▁生成一段	-10588
▁给我介绍	-10589
▁非常感谢	-10590
一些简单的	-10591
也可以通过	-10592
也非常重要	-10593
人工智能是	-10594
从小到大的	-10595
优点和缺点	-10596
健康的食物	-10597
充满活力的	-10598
克里斯托弗	-10599
公司的销售	-10600
加入适量的	-10601
发现了一个	-10602
可以有效地	-10603
和应用程序	-10604
学习新语言	-10605
它可以通过	-10606
工作和学习	-10607
我们需要在	-10608
我很高兴能	-10609
我感到非常	-10610
时间和资源	-10611
更好地管理	-10612
更好的生活	-10613
最大公约数	-10614
有效的方法	-10615
有趣的事实	-10616
电影名称和	-10617
的生活方式	-10618
目标和计划	-10619
积极的态度	-10620
终于找到了	-10621
经历了许多	-10622
给定的文章	-10623
美好的一天	-10624
翻译为中文	-10625
翻译成德语	-10626
自己的生活	-10627
自己的能力	-10628
语法错误和	-10629
越来越广泛	-10630
身份证号码	-10631
输出应该是	-10632
选择正确的	-10633
面临的最大	-10634
ighted	-10635
result	-10636
▁Music	-10637
▁activ	-10638
▁books	-10639
▁field	-10640
▁funct	-10641
▁hello	-10642
▁night	-10643
▁story	-10644
▁为一篇关于	-10645
▁将一段文本	-10646
为我们提供了	-10647
今天天气晴朗	-10648
保护个人隐私	-10649
发挥重要作用	-10650
可重复使用的	-10651
对社会的影响	-10652
市场营销策略	-10653
我们可以一起	-10654
我们需要采取	-10655
是我最喜欢的	-10656
更具体的信息	-10657
最重要的事情	-10658
的产品和服务	-10659
Bonjour	-10660
ucation	-10661
▁basket	-10662
▁concer	-10663
▁create	-10664
▁during	-10665
▁recent	-10666
▁将给定的句子	-10667
▁给出一个问题	-10668
▁给出一篇文章	-10669
▁给出一组数字	-10670
▁给定一个文本	-10671
▁给定一个电影	-10672
▁这是一篇关于	-10673
你有什么建议吗	-10674
关于人工智能的	-10675
最小值和最大值	-10676
▁advance	-10677
▁between	-10678
▁machine	-10679
▁writing	-10680
▁将以下句子中的	-10681
▁根据输入的电影	-10682
▁给定两个字符串	-10683
在医疗领域的应用	-10684
将它们合并成一个	-10685
|--------	-10686
▁favorite	-10687
▁operator	-10688
JavaScript	-10689
".	-10690
(5	-10691
+3	-10692
-4	-10693
AM	-10694
SS	-10695
])	-10696
fo	-10697
py	-10698
tt	-10699
{5	-10700
▁&	-10701
▁à	-10702
▁–	-10703
▁下	-10704
▁主	-10705
▁前	-10706
▁收	-10707
▁比	-10708
▁词	-10709
、4	-10710
一小	-10711
一度	-10712
一把	-10713
一生	-10714
一股	-10715
三年	-10716
三部	-10717
上周	-10718
上涨	-10719
上课	-10720
不当	-10721
丝绸	-10722
丢失	-10723
两年	-10724
两组	-10725
为每	-10726
丽丝	-10727
举措	-10728
交替	-10729
亲朋	-10730
亲自	-10731
介词	-10732
从那	-10733
以赴	-10734
会儿	-10735
使它	-10736
修饰	-10737
停留	-10738
偶然	-10739
光谱	-10740
内涵	-10741
写的	-10742
冰层	-10743
冰盖	-10744
几次	-10745
分泌	-10746
创办	-10747
制片	-10748
加以	-10749
勇于	-10750
勇士	-10751
十二	-10752
南岛	-10753
卡车	-10754
印刷	-10755
原型	-10756
原本	-10757
反射	-10758
名胜	-10759
后代	-10760
向他	-10761
吸取	-10762
命令	-10763
和蓝	-10764
喝水	-10765
回顾	-10766
圆的	-10767
坚实	-10768
女子	-10769
委托	-10770
字典	-10771
学院	-10772
它能	-10773
实惠	-10774
寡妇	-10775
导游	-10776
将要	-10777
少许	-10778
展望	-10779
崩溃	-10780
巴士	-10781
帮您	-10782
干燥	-10783
店里	-10784
弹性	-10785
很长	-10786
得主	-10787
得以	-10788
得多	-10789
思念	-10790
惊奇	-10791
想起	-10792
感官	-10793
我来	-10794
战术	-10795
所学	-10796
所示	-10797
把它	-10798
抵抗	-10799
拍打	-10800
持有	-10801
接口	-10802
推向	-10803
提及	-10804
搞笑	-10805
整除	-10806
旁边	-10807
旅客	-10808
时空	-10809
星云	-10810
暴露	-10811
曝光	-10812
更长	-10813
有序	-10814
机密	-10815
杏仁	-10816
极度	-10817
某人	-10818
校对	-10819
植树	-10820
概率	-10821
正义	-10822
毁灭	-10823
每晚	-10824
毕竟	-10825
气层	-10826
油画	-10827
流利	-10828
测量	-10829
海上	-10830
源于	-10831
灿烂	-10832
点到	-10833
热衷	-10834
照耀	-10835
煮沸	-10836
爱你	-10837
牙签	-10838
牙齿	-10839
特效	-10840
特朗	-10841
现金	-10842
理性	-10843
用作	-10844
用水	-10845
电力	-10846
画作	-10847
病历	-10848
百分	-10849
石头	-10850
种子	-10851
种种	-10852
秒钟	-10853
税收	-10854
穿戴	-10855
突发	-10856
窗帘	-10857
米的	-10858
精细	-10859
糖果	-10860
糯米	-10861
紫色	-10862
纯素	-10863
线条	-10864
细腻	-10865
终点	-10866
罪犯	-10867
老虎	-10868
而来	-10869
耐力	-10870
耐用	-10871
股价	-10872
能等	-10873
脾气	-10874
腌制	-10875
腹肌	-10876
芝麻	-10877
莱昂	-10878
行者	-10879
行走	-10880
被遗	-10881
裙子	-10882
觉醒	-10883
计数	-10884
论据	-10885
证书	-10886
详情	-10887
诺兰	-10888
调试	-10889
质疑	-10890
走着	-10891
起到	-10892
跟着	-10893
身穿	-10894
转向	-10895
转移	-10896
这封	-10897
违规	-10898
迷失	-10899
退货	-10900
选购	-10901
透过	-10902
递归	-10903
遍历	-10904
遗址	-10905
那就	-10906
部署	-10907
都被	-10908
酥脆	-10909
钢铁	-10910
长远	-10911
问问	-10912
阴影	-10913
阵容	-10914
雇主	-10915
雪花	-10916
面前	-10917
顾问	-10918
餐食	-10919
马拉	-10920
马斯	-10921
鳄梨	-10922
黄金	-10923
鼻子	-10924
齐全	-10925
2),	-10926
:12	-10927
:15	-10928
Mac	-10929
Max	-10930
bre	-10931
che	-10932
ena	-10933
iam	-10934
ier	-10935
iqu	-10936
ley	-10937
ney	-10938
ods	-10939
ric	-10940
rig	-10941
set	-10942
sis	-10943
ude	-10944
wit	-10945
▁27	-10946
▁>=	-10947
▁Im	-10948
▁Se	-10949
▁wa	-10950
▁一只	-10951
▁一名	-10952
▁主演	-10953
▁位置	-10954
▁删除	-10955
▁华为	-10956
▁品牌	-10957
▁地址	-10958
▁女性	-10959
▁安装	-10960
▁尝试	-10961
▁情节	-10962
▁最终	-10963
▁杰克	-10964
▁标签	-10965
▁烹饪	-10966
▁牛奶	-10967
▁组织	-10968
▁罗马	-10969
▁英语	-10970
▁返回	-10971
▁这首	-10972
▁预测	-10973
▁黑洞	-10974
一开始	-10975
一直是	-10976
下一次	-10977
不可逆	-10978
与家人	-10979
个鸡蛋	-10980
主人的	-10981
主要以	-10982
主题或	-10983
之以恒	-10984
了各种	-10985
事件的	-10986
五言诗	-10987
交响曲	-10988
仍然是	-10989
以保证	-10990
以确定	-10991
任务和	-10992
优势和	-10993
会增加	-10994
会议上	-10995
会议的	-10996
但是它	-10997
位数为	-10998
保护色	-10999
再利用	-11000
农作物	-11001
决策和	-11002
几个月	-11003
出一个	-11004
出去玩	-11005
分布式	-11006
分析了	-11007
加西亚	-11008
危险的	-11009
发件人	-11010
各自的	-11011
同学们	-11012
名字是	-11013
名词和	-11014
吸引人	-11015
和修改	-11016
和化学	-11017
和实施	-11018
和尊重	-11019
和工业	-11020
和水果	-11021
和策略	-11022
和网络	-11023
和高盐	-11024
唯一的	-11025
喝一杯	-11026
因为你	-11027
图像和	-11028
在公司	-11029
在医学	-11030
在教育	-11031
在疫情	-11032
在选择	-11033
复杂性	-11034
大教堂	-11035
天空中	-11036
字左右	-11037
它们都	-11038
它使用	-11039
它包括	-11040
它通过	-11041
宇航员	-11042
对方的	-11043
将文本	-11044
将面临	-11045
平台上	-11046
平板机	-11047
并及时	-11048
并改善	-11049
并改进	-11050
并积极	-11051
引人注	-11052
张先生	-11053
张经理	-11054
弥漫着	-11055
形象和	-11056
影响的	-11057
很好吃	-11058
很强的	-11059
怎么做	-11060
恰当的	-11061
意思是	-11062
意见和	-11063
成长和	-11064
我们能	-11065
我只是	-11066
我总是	-11067
我明天	-11068
或负面	-11069
所以我	-11070
才能够	-11071
打开了	-11072
执行官	-11073
找一个	-11074
探索和	-11075
探险家	-11076
政府的	-11077
数形式	-11078
数量的	-11079
斯蒂芬	-11080
时间差	-11081
是一只	-11082
是不是	-11083
更清晰	-11084
有帮助	-11085
有用的	-11086
机会和	-11087
来创建	-11088
来到了	-11089
来控制	-11090
此任务	-11091
比如说	-11092
毕业后	-11093
求职信	-11094
温度和	-11095
火车站	-11096
爱情的	-11097
牛仔裤	-11098
牧羊犬	-11099
特色的	-11100
疲劳和	-11101
的一次	-11102
的事实	-11103
的兴趣	-11104
的口感	-11105
的商品	-11106
的地点	-11107
的平衡	-11108
的性能	-11109
的成功	-11110
的日程	-11111
的气候	-11112
的海滩	-11113
的现象	-11114
的看法	-11115
的第一	-11116
的结局	-11117
的能量	-11118
的色彩	-11119
的观点	-11120
的语法	-11121
的长度	-11122
看一下	-11123
看上去	-11124
短文章	-11125
短视频	-11126
矮行星	-11127
碳足迹	-11128
离不开	-11129
科学和	-11130
积极向	-11131
精美的	-11132
红色和	-11133
结果为	-11134
羽毛球	-11135
艾萨克	-11136
花时间	-11137
计划表	-11138
起源于	-11139
这就是	-11140
这样做	-11141
这里有	-11142
迟到了	-11143
迷路了	-11144
都没有	-11145
面积为	-11146
面粉和	-11147
风险和	-11148
食品袋	-11149
黑色的	-11150
2015	-11151
Tube	-11152
Word	-11153
acci	-11154
ager	-11155
aven	-11156
ctor	-11157
ider	-11158
ists	-11159
psum	-11160
rant	-11161
ream	-11162
rist	-11163
self	-11164
test	-11165
time	-11166
usta	-11167
▁36,	-11168
▁50,	-11169
▁67,	-11170
▁78,	-11171
▁Add	-11172
▁Doe	-11173
▁Fit	-11174
▁Res	-11175
▁big	-11176
▁fre	-11177
▁non	-11178
▁oun	-11179
▁tri	-11180
▁巴厘岛	-11181
▁我写信	-11182
▁接下来	-11183
▁是一个	-11184
▁该公司	-11185
▁这本书	-11186
一些时间	-11187
不可忽视	-11188
主演包括	-11189
也很重要	-11190
产品名称	-11191
亲朋好友	-11192
人们需要	-11193
人力资源	-11194
人员伤亡	-11195
他的作品	-11196
但实际上	-11197
但我可以	-11198
体育锻炼	-11199
作为输入	-11200
你们公司	-11201
例如通过	-11202
充分利用	-11203
全力以赴	-11204
公司正在	-11205
写作风格	-11206
准备一份	-11207
减少能源	-11208
出行方式	-11209
分类算法	-11210
升序排列	-11211
参加一些	-11212
发生变化	-11213
可以有效	-11214
各种问题	-11215
和它们的	-11216
哥伦比亚	-11217
在文本中	-11218
塞纳河畔	-11219
如何处理	-11220
如何解决	-11221
学术论文	-11222
实践经验	-11223
客户需求	-11224
将有助于	-11225
属于哪个	-11226
工作中的	-11227
工作环境	-11228
希望你能	-11229
年轻人的	-11230
并告诉我	-11231
心理问题	-11232
心肺功能	-11233
感到孤独	-11234
成为人们	-11235
我们生活	-11236
我们非常	-11237
我看到了	-11238
户外运动	-11239
抗氧化剂	-11240
持之以恒	-11241
描述一下	-11242
提高我的	-11243
数字时代	-11244
是否应该	-11245
模拟人类	-11246
正方形的	-11247
烤鸡胸肉	-11248
现实主义	-11249
生存环境	-11250
生日派对	-11251
用户输入	-11252
的工作中	-11253
的年轻人	-11254
的行星是	-11255
研究发现	-11256
等领域的	-11257
给出一个	-11258
给我们的	-11259
能够帮助	-11260
能够适应	-11261
能够通过	-11262
艺术作品	-11263
英文论文	-11264
虚假信息	-11265
计算资源	-11266
超级英雄	-11267
足够的水	-11268
身份验证	-11269
过程中的	-11270
这个地方	-11271
这个职位	-11272
这个领域	-11273
这些因素	-11274
这些都是	-11275
这段对话	-11276
这种情况	-11277
通常需要	-11278
都是一个	-11279
隐私保护	-11280
需要一个	-11281
革命性的	-11282
预热好的	-11283
风险承受	-11284
饮食计划	-11285
eorge	-11286
eries	-11287
inner	-11288
input	-11289
ional	-11290
ished	-11291
lower	-11292
place	-11293
value	-11294
▁area	-11295
▁away	-11296
▁form	-11297
▁keep	-11298
▁lead	-11299
▁left	-11300
▁simp	-11301
▁提供一份	-11302
▁新闻标题	-11303
▁根据所给	-11304
▁根据给出	-11305
▁给你一个	-11306
▁给定一首	-11307
▁给我三个	-11308
▁联系方式	-11309
世界各地的	-11310
也可能导致	-11311
互联网公司	-11312
人们越来越	-11313
人工智能对	-11314
以下是几个	-11315
以便我可以	-11316
克服拖延症	-11317
公司的产品	-11318
喜欢旅游和	-11319
客户的需求	-11320
将其分类为	-11321
小明和小红	-11322
展示自己的	-11323
带来了很多	-11324
您可以通过	-11325
我们也可以	-11326
我们可以在	-11327
我们还需要	-11328
找到其中的	-11329
提供适当的	-11330
提出了一些	-11331
无监督学习	-11332
时间和地点	-11333
有什么看法	-11334
根据自己的	-11335
模拟人类的	-11336
没有足够的	-11337
焦虑和压力	-11338
的情感极性	-11339
的重要手段	-11340
给定文本中	-11341
自由女神像	-11342
获奖最多的	-11343
解决的问题	-11344
这些关键词	-11345
这可能导致	-11346
SpaceX	-11347
choice	-11348
onacci	-11349
orrect	-11350
sorted	-11351
uction	-11352
witter	-11353
▁Earth	-11354
▁James	-11355
▁again	-11356
▁daily	-11357
▁gusta	-11358
▁light	-11359
▁organ	-11360
▁phone	-11361
▁pract	-11362
▁train	-11363
▁下面是一段	-11364
▁为一篇文章	-11365
▁给定两个数	-11366
▁给我讲一个	-11367
一起去看电影	-11368
因为我不知道	-11369
在全球范围内	-11370
基于深度学习	-11371
如朴素贝叶斯	-11372
带来了巨大的	-11373
待办事项清单	-11374
循环神经网络	-11375
排序后的列表	-11376
提供了更多的	-11377
是美国第一位	-11378
更深入地了解	-11379
极端气候事件	-11380
语音识别技术	-11381
▁Sophie	-11382
▁letter	-11383
▁movies	-11384
▁number	-11385
▁school	-11386
▁system	-11387
▁为给定的句子	-11388
▁将给定的文本	-11389
▁根据以下文本	-11390
▁给定一个包含	-11391
▁给定一个单词	-11392
▁给定两个日期	-11393
一位经验丰富的	-11394
产生深远的影响	-11395
人们的生活方式	-11396
人工智能是一种	-11397
以下是一个例子	-11398
全球气候变化的	-11399
出现频率最高的	-11400
可以根据自己的	-11401
数据隐私和安全	-11402
数据集训练一个	-11403
计算它们的乘积	-11404
身体和心理健康	-11405
▁complex	-11406
▁consist	-11407
▁culture	-11408
▁process	-11409
▁project	-11410
▁support	-11411
非常感谢您的建议	-11412
▁mountain	-11413
分为训练集和测试集	-11414
是我们每个人的责任	-11415
模拟人类智能的技术	-11416
Artificial	-11417
▁knowledge	-11418
Transformer	-11419
▁Artificial	-11420
▁basketball	-11421
▁programming	-11422
0。	-11423
1-	-11424
2]	-11425
34	-11426
48	-11427
4。	-11428
56	-11429
98	-11430
:6	-11431
;《	-11432
As	-11433
Im	-11434
It	-11435
Ne	-11436
PG	-11437
SP	-11438
SV	-11439
UV	-11440
ai	-11441
bl	-11442
do	-11443
oh	-11444
pi	-11445
ès	-11446
▁乙	-11447
▁四	-11448
▁数	-11449
▁秋	-11450
▁等	-11451
▁蒜	-11452
▁蒸	-11453
▁解	-11454
、1	-11455
万有	-11456
万物	-11457
不明	-11458
世代	-11459
东方	-11460
中火	-11461
临床	-11462
主观	-11463
之地	-11464
了我	-11465
二十	-11466
于世	-11467
云南	-11468
交错	-11469
享有	-11470
人与	-11471
代价	-11472
代夫	-11473
会被	-11474
余华	-11475
修剪	-11476
偏差	-11477
做起	-11478
傲慢	-11479
充沛	-11480
先将	-11481
其它	-11482
写下	-11483
冰箱	-11484
几何	-11485
凯旋	-11486
出口	-11487
切实	-11488
划船	-11489
初始	-11490
剪刀	-11491
匆匆	-11492
双手	-11493
受害	-11494
变换	-11495
只需	-11496
可怕	-11497
可是	-11498
后面	-11499
和国	-11500
咳嗽	-11501
喉咙	-11502
器中	-11503
图片	-11504
坐下	-11505
坐标	-11506
培根	-11507
处的	-11508
复古	-11509
多拉	-11510
大众	-11511
大厦	-11512
天使	-11513
太过	-11514
奥秘	-11515
好吃	-11516
妻子	-11517
学费	-11518
实行	-11519
将为	-11520
小区	-11521
尔斯	-11522
尴尬	-11523
尼黑	-11524
岁月	-11525
巨头	-11526
常态	-11527
并列	-11528
并按	-11529
开创	-11530
开启	-11531
引体	-11532
当天	-11533
得体	-11534
得很	-11535
微信	-11536
忘怀	-11537
惊人	-11538
想到	-11539
意愿	-11540
感叹	-11541
或在	-11542
手持	-11543
扫描	-11544
批判	-11545
投票	-11546
括号	-11547
探寻	-11548
敏捷	-11549
新开	-11550
日出	-11551
星光	-11552
星系	-11553
智力	-11554
暂时	-11555
曾在	-11556
月球	-11557
未经	-11558
杂货	-11559
极为	-11560
柱状	-11561
标语	-11562
树林	-11563
棘手	-11564
正则	-11565
此次	-11566
武器	-11567
武术	-11568
歧义	-11569
每种	-11570
海水	-11571
深夜	-11572
深思	-11573
渐变	-11574
渗透	-11575
温柔	-11576
滥用	-11577
炒面	-11578
烤熟	-11579
烤鸡	-11580
烧肉	-11581
爸爸	-11582
犹豫	-11583
狂欢	-11584
猫砂	-11585
理发	-11586
瘦肉	-11587
的老	-11588
盗梦	-11589
盛宴	-11590
目击	-11591
直线	-11592
相符	-11593
相等	-11594
看出	-11595
竞技	-11596
笑容	-11597
精明	-11598
糖醋	-11599
紧凑	-11600
约束	-11601
线下	-11602
细致	-11603
网球	-11604
老年	-11605
者和	-11606
而又	-11607
耳机	-11608
肥料	-11609
肿瘤	-11610
自学	-11611
自律	-11612
自豪	-11613
艰苦	-11614
花和	-11615
花生	-11616
花香	-11617
药品	-11618
蔬果	-11619
螺旋	-11620
血糖	-11621
被迫	-11622
要想	-11623
观光	-11624
视力	-11625
视角	-11626
解开	-11627
议程	-11628
课题	-11629
谜语	-11630
财政	-11631
贵族	-11632
资讯	-11633
起着	-11634
跑了	-11635
路径	-11636
路由	-11637
转折	-11638
过得	-11639
这两	-11640
这使	-11641
迹象	-11642
送到	-11643
适用	-11644
选举	-11645
逛街	-11646
道歉	-11647
道理	-11648
邦特	-11649
醒来	-11650
采购	-11651
重心	-11652
间歇	-11653
队员	-11654
雨伞	-11655
韩国	-11656
风声	-11657
飞船	-11658
饥饿	-11659
馅料	-11660
马修	-11661
高山	-11662
高峰	-11663
鲜明	-11664
-1,	-11665
-30	-11666
16,	-11667
23,	-11668
25,	-11669
:2,	-11670
:35	-11671
:9.	-11672
APP	-11673
App	-11674
Com	-11675
ape	-11676
ats	-11677
ird	-11678
kes	-11679
key	-11680
oom	-11681
par	-11682
uce	-11683
uch	-11684
▁00	-11685
▁1)	-11686
▁2)	-11687
▁3)	-11688
▁35	-11689
▁5)	-11690
▁Di	-11691
▁Ne	-11692
▁XX	-11693
▁ft	-11694
▁一天	-11695
▁两个	-11696
▁主菜	-11697
▁主角	-11698
▁伦敦	-11699
▁信息	-11700
▁关注	-11701
▁历史	-11702
▁名字	-11703
▁对话	-11704
▁年份	-11705
▁所有	-11706
▁手机	-11707
▁持续	-11708
▁撒上	-11709
▁支持	-11710
▁春天	-11711
▁查询	-11712
▁点击	-11713
▁特征	-11714
▁科幻	-11715
▁第一	-11716
▁结论	-11717
▁考虑	-11718
▁设计	-11719
▁这只	-11720
▁配菜	-11721
▁锻炼	-11722
▁食谱	-11723
》(《	-11724
一定要	-11725
不可能	-11726
不客气	-11727
不小心	-11728
世界里	-11729
世纪初	-11730
为社会	-11731
主要的	-11732
也十分	-11733
也随之	-11734
了一下	-11735
了一起	-11736
了懒狗	-11737
事件和	-11738
事实上	-11739
二进制	-11740
人心弦	-11741
以保护	-11742
以及它	-11743
以适应	-11744
任何人	-11745
会议室	-11746
但也有	-11747
体现了	-11748
体验到	-11749
你已经	-11750
使句子	-11751
便捷的	-11752
俄罗斯	-11753
信心和	-11754
全谷物	-11755
公共子	-11756
关于该	-11757
再加上	-11758
写一段	-11759
几年内	-11760
凯旋门	-11761
分析等	-11762
创造了	-11763
制定更	-11764
华氏度	-11765
参与到	-11766
变成了	-11767
只要你	-11768
可回收	-11769
可靠的	-11770
史蒂夫	-11771
合作和	-11772
同时还	-11773
告诉你	-11774
和主题	-11775
和句子	-11776
和愉悦	-11777
和手机	-11778
和生活	-11779
和监管	-11780
和算法	-11781
和运动	-11782
和销售	-11783
咖啡厅	-11784
哪些是	-11785
在一次	-11786
在巴黎	-11787
在我们	-11788
在进行	-11789
地学习	-11790
地表达	-11791
场景和	-11792
培训和	-11793
多样的	-11794
失业率	-11795
失落的	-11796
她开始	-11797
嫌疑人	-11798
孟加拉	-11799
学习到	-11800
学生在	-11801
实现的	-11802
家庭中	-11803
将以下	-11804
将单词	-11805
尊重和	-11806
小数点	-11807
局限性	-11808
州大学	-11809
工作者	-11810
年龄和	-11811
并不能	-11812
并分享	-11813
并利用	-11814
并试图	-11815
影响到	-11816
感觉到	-11817
慕尼黑	-11818
我也会	-11819
我刚刚	-11820
拥有的	-11821
描述和	-11822
提到的	-11823
故事的	-11824
方方面	-11825
方程的	-11826
无限的	-11827
日程表	-11828
星期五	-11829
是关键	-11830
是哪个	-11831
是指在	-11832
是日本	-11833
最频繁	-11834
服务等	-11835
来保持	-11836
来减轻	-11837
来增强	-11838
柔软的	-11839
柱状图	-11840
棕色的	-11841
比其他	-11842
汉堡王	-11843
活动中	-11844
流行病	-11845
游戏中	-11846
潘多拉	-11847
然后用	-11848
物质的	-11849
环游记	-11850
现有的	-11851
的元素	-11852
的前提	-11853
的地标	-11854
的地理	-11855
的女孩	-11856
的存在	-11857
的对话	-11858
的建筑	-11859
的整数	-11860
的景点	-11861
的最大	-11862
的歌词	-11863
的特征	-11864
的生命	-11865
的科学	-11866
的秘密	-11867
的程序	-11868
的经验	-11869
的计算	-11870
的详细	-11871
的顺序	-11872
的高度	-11873
知名度	-11874
科学的	-11875
第三个	-11876
筛选出	-11877
简单易	-11878
置身于	-11879
美妙的	-11880
聪明的	-11881
能够为	-11882
脂肪和	-11883
自定义	-11884
自然和	-11885
航空业	-11886
艺术的	-11887
莱昂纳	-11888
表示为	-11889
计划吗	-11890
让我的	-11891
让模型	-11892
记忆力	-11893
评分为	-11894
识别出	-11895
请输入	-11896
负责任	-11897
责任和	-11898
质量的	-11899
购买了	-11900
起源和	-11901
超出了	-11902
还包括	-11903
选择最	-11904
里程碑	-11905
重大的	-11906
长期的	-11907
问一下	-11908
防晒霜	-11909
陷入了	-11910
预测和	-11911
题目和	-11912
高效率	-11913
000,	-11914
5-10	-11915
HTML	-11916
abit	-11917
aret	-11918
aset	-11919
avel	-11920
aves	-11921
care	-11922
dict	-11923
head	-11924
join	-11925
oney	-11926
pass	-11927
pect	-11928
rape	-11929
ries	-11930
side	-11931
ults	-11932
▁11.	-11933
▁19,	-11934
▁24,	-11935
▁29,	-11936
▁9.0	-11937
▁ABC	-11938
▁Ben	-11939
▁But	-11940
▁For	-11941
▁One	-11942
▁Use	-11943
▁bro	-11944
▁dui	-11945
▁gen	-11946
▁hom	-11947
▁hor	-11948
▁ice	-11949
▁joy	-11950
▁les	-11951
▁loc	-11952
▁met	-11953
▁plt	-11954
▁rap	-11955
▁rep	-11956
▁sad	-11957
▁say	-11958
▁sem	-11959
▁som	-11960
▁俯卧撑	-11961
▁我最近	-11962
▁机器人	-11963
▁橄榄油	-11964
▁番茄酱	-11965
▁给定的	-11966
▁蛋白质	-11967
▁请注意	-11968
▁这句话	-11969
一个好的	-11970
一只小狗	-11971
一组数据	-11972
万有引力	-11973
两个列表	-11974
个人喜好	-11975
中国文化	-11976
乘坐地铁	-11977
了一定的	-11978
产品评论	-11979
人口增长	-11980
人物形象	-11981
他们喜欢	-11982
他意识到	-11983
代码如下	-11984
代表性的	-11985
以下段落	-11986
但也需要	-11987
使用时间	-11988
保持冷静	-11989
保持高效	-11990
信息泄露	-11991
做出决策	-11992
健康生活	-11993
健身目标	-11994
分享一下	-11995
创造性的	-11996
加入一些	-11997
协同过滤	-11998
只要我们	-11999
可以满足	-12000
可以用来	-12001
可以自动	-12002
后的段落	-12003
吸引更多	-12004
和健康的	-12005
和时间表	-12006
和海王星	-12007
因为他们	-12008
天文学家	-12009
如何选择	-12010
字的短文	-12011
实现梦想	-12012
客户关系	-12013
对于那些	-12014
对我来说	-12015
寻找一个	-12016
将给定的	-12017
市场竞争	-12018
平板支撑	-12019
延迟退休	-12020
建筑技术	-12021
开发人员	-12022
引体向上	-12023
强化学习	-12024
当地文化	-12025
德拉邦特	-12026
感受到了	-12027
我们今天	-12028
我很期待	-12029
我有一个	-12030
找出所有	-12031
投资者的	-12032
持续上升	-12033
挑战之一	-12034
挑战自己	-12035
推荐一些	-12036
描述性的	-12037
提供更多	-12038
提取出来	-12039
播放音乐	-12040
文本摘要	-12041
新技术和	-12042
新的句子	-12043
新的机会	-12044
新鲜空气	-12045
方方面面	-12046
昨天晚上	-12047
智能交通	-12048
智能音箱	-12049
最近上映	-12050
未来城市	-12051
根据您的	-12052
模型训练	-12053
正面评价	-12054
每个段落	-12055
水上活动	-12056
治疗效果	-12057
法律法规	-12058
海洋污染	-12059
深远影响	-12060
游客可以	-12061
然后将其	-12062
现代化的	-12063
生产力和	-12064
生产方式	-12065
电子游戏	-12066
电池寿命	-12067
的投资人	-12068
盆栽植物	-12069
盗梦空间	-12070
目标单词	-12071
研究团队	-12072
研究如何	-12073
研究方向	-12074
神经系统	-12075
科技产品	-12076
符合条件	-12077
绿色能源	-12078
编写一份	-12079
编辑距离	-12080
股票市场	-12081
能够更加	-12082
自然风光	-12083
英语口语	-12084
草食动物	-12085
血液循环	-12086
计算结果	-12087
认真对待	-12088
该怎么办	-12089
身体语言	-12090
输入字段	-12091
迁移学习	-12092
过滤工具	-12093
这个机会	-12094
这些动物	-12095
这些影响	-12096
这方面的	-12097
这样可以	-12098
进行分析	-12099
远程工作	-12100
逻辑回归	-12101
那太好了	-12102
量子计算	-12103
针对性的	-12104
随时随地	-12105
随机森林	-12106
非常广泛	-12107
食品袋装	-12108
马尔代夫	-12109
高的山峰	-12110
(10)]	-12111
-----	-12112
15-20	-12113
earch	-12114
ening	-12115
other	-12116
ource	-12117
ually	-12118
utoML	-12119
zebra	-12120
▁Emma	-12121
▁When	-12122
▁amet	-12123
▁cake	-12124
▁dise	-12125
▁fore	-12126
▁loud	-12127
▁ment	-12128
▁news	-12129
▁phys	-12130
▁plac	-12131
▁prot	-12132
▁qual	-12133
▁rise	-12134
▁soir	-12135
▁制定计划	-12136
▁原始段落	-12137
▁城市名称	-12138
▁我很喜欢	-12139
▁描述一种	-12140
▁提供一段	-12141
▁根据提供	-12142
▁环境保护	-12143
▁给出一首	-12144
▁谢谢您的	-12145
▁除此之外	-12146
一只可爱的	-12147
一篇文章中	-12148
三种不同的	-12149
与人工智能	-12150
两个字符串	-12151
之间的交流	-12152
之间的所有	-12153
了一系列的	-12154
互联网金融	-12155
以及它们的	-12156
休息和放松	-12157
做出自己的	-12158
创造更多的	-12159
前所未有的	-12160
可以应用于	-12161
吸引读者的	-12162
和气候变化	-12163
和生态系统	-12164
和社交媒体	-12165
因为我无法	-12166
因为我没有	-12167
因素的影响	-12168
在语音识别	-12169
如何更好地	-12170
如果我们不	-12171
富含维生素	-12172
对环境造成	-12173
将其转换为	-12174
并返回结果	-12175
建议您使用	-12176
您没有提供	-12177
成长和发展	-12178
我无法直接	-12179
拥有丰富的	-12180
挑战和困难	-12181
挑战和机遇	-12182
提供的信息	-12183
提高我们的	-12184
数字的列表	-12185
旅行目的地	-12186
更加智能化	-12187
更好地应对	-12188
替换的单词	-12189
最长公共子	-12190
有趣的故事	-12191
根据给定的	-12192
正确的拼写	-12193
水平的提高	-12194
潜在的风险	-12195
环境问题的	-12196
生成一个与	-12197
疾病的发生	-12198
的关键因素	-12199
的工作计划	-12200
的推荐算法	-12201
的旅游景点	-12202
看到了一个	-12203
硬件和软件	-12204
社交媒体和	-12205
社交媒体对	-12206
积极向上的	-12207
简短的摘要	-12208
类型的电影	-12209
经济和社会	-12210
经验和知识	-12211
职业生涯中	-12212
自然环境的	-12213
自由职业者	-12214
著名的景点	-12215
许多不同的	-12216
重要的影响	-12217
随着互联网	-12218
震动平板机	-12219
预防和治疗	-12220
ercase	-12221
ertain	-12222
ildren	-12223
intain	-12224
rating	-12225
▁Swift	-12226
▁Thank	-12227
▁Watch	-12228
▁build	-12229
▁chang	-12230
▁dolor	-12231
▁order	-12232
▁pivot	-12233
▁sleep	-12234
▁sound	-12235
▁these	-12236
▁times	-12237
▁分类给定的	-12238
▁泰坦尼克号	-12239
▁给出一句话	-12240
▁请生成一篇	-12241
一篇中文文章	-12242
人们可以通过	-12243
人工智能将会	-12244
从小到大排序	-12245
以下句子中的	-12246
减缓气候变化	-12247
包括以下内容	-12248
因为我是一个	-12249
在这次对话中	-12250
在这种情况下	-12251
如果您有任何	-12252
已经成为人们	-12253
成功的企业家	-12254
提高生活质量	-12255
机器学习技术	-12256
波特与魔法石	-12257
生成一首诗歌	-12258
计算机技术和	-12259
Spotify	-12260
aligned	-12261
vention	-12262
▁Knight	-12263
▁sample	-12264
▁travel	-12265
▁walked	-12266
▁回答以下问题	-12267
▁生成一篇文章	-12268
▁给出一篇关于	-12269
▁给定一组单词	-12270
▁给定一组文本	-12271
▁给我推荐一本	-12272
人工智能的一个	-12273
保护我们的地球	-12274
保护我们的环境	-12275
保持身体健康的	-12276
出现次数最多的	-12277
提高自己的技能	-12278
数字的平均值为	-12279
语法和拼写检查	-12280
standing	-12281
▁Sheeran	-12282
▁average	-12283
▁content	-12284
▁natural	-12285
▁predict	-12286
▁thought	-12287
▁将以下文本中的	-12288
人工智能语言模型	-12289
越来越重要的角色	-12290
Inception	-12291
itionally	-12292
▁maintain	-12293
▁research	-12294
▁spelling	-12295
▁对给定的文本进行	-12296
▁给定一篇英文文章	-12297
▁编辑下面这段文字	-12298
可以帮助我们更好地	-12299
是一种人工智能技术	-12300
语法错误和拼写错误	-12301
▁delighted	-12302
▁challenges	-12303
▁everything	-12304
▁increasing	-12305
敏捷的棕色狐狸跳过懒狗	-12306
▁experiences	-12307
+2	-12308
,1	-12309
.)	-12310
36	-12311
77	-12312
82	-12313
CA	-12314
DR	-12315
FI	-12316
HR	-12317
NI	-12318
Sa	-12319
Un	-12320
];	-12321
aN	-12322
co	-12323
lo	-12324
pm	-12325
yn	-12326
▁「	-12327
▁加	-12328
▁吃	-12329
▁年	-12330
▁水	-12331
▁甲	-12332
▁答	-12333
▁自	-12334
▁饰	-12335
一对	-12336
一艘	-12337
万人	-12338
三星	-12339
不佳	-12340
不懂	-12341
不易	-12342
不管	-12343
与他	-12344
与众	-12345
专辑	-12346
两侧	-12347
严谨	-12348
主旨	-12349
主管	-12350
之道	-12351
也对	-12352
书本	-12353
买菜	-12354
事宜	-12355
亲密	-12356
亲情	-12357
人称	-12358
人脑	-12359
亿元	-12360
他被	-12361
付费	-12362
代入	-12363
会上	-12364
会在	-12365
位词	-12366
使人	-12367
便于	-12368
保湿	-12369
修订	-12370
俯瞰	-12371
像是	-12372
像素	-12373
全新	-12374
公平	-12375
其余	-12376
养殖	-12377
净化	-12378
减去	-12379
别姬	-12380
刻画	-12381
力度	-12382
功夫	-12383
加坡	-12384
勾股	-12385
化妆	-12386
区分	-12387
区和	-12388
十个	-12389
半身	-12390
单击	-12391
卡普	-12392
卧室	-12393
卧推	-12394
变异	-12395
叶子	-12396
各大	-12397
同步	-12398
名片	-12399
听取	-12400
和烤	-12401
和防	-12402
咕噜	-12403
哈希	-12404
嗅觉	-12405
因人	-12406
固醇	-12407
在其	-12408
在她	-12409
在新	-12410
基石	-12411
填入	-12412
壮大	-12413
声和	-12414
复习	-12415
夜景	-12416
夜间	-12417
大到	-12418
大卫	-12419
大雨	-12420
太平	-12421
头上	-12422
她们	-12423
好书	-12424
好啊	-12425
始于	-12426
婴儿	-12427
学士	-12428
学家	-12429
安卓	-12430
安妮	-12431
审核	-12432
家的	-12433
容量	-12434
富翁	-12435
小丑	-12436
小花	-12437
尔夫	-12438
尾气	-12439
尾酒	-12440
布恩	-12441
帐篷	-12442
平凡	-12443
度量	-12444
开朗	-12445
德勒	-12446
德里	-12447
忠实	-12448
总价	-12449
恶劣	-12450
情人	-12451
想过	-12452
感人	-12453
戴着	-12454
所属	-12455
手法	-12456
手里	-12457
打车	-12458
批评	-12459
护肤	-12460
抵御	-12461
拉伸	-12462
排队	-12463
摘录	-12464
擀成	-12465
放到	-12466
数以	-12467
整天	-12468
斯基	-12469
时装	-12470
时长	-12471
是不	-12472
是想	-12473
更能	-12474
木材	-12475
权力	-12476
材质	-12477
杠铃	-12478
梦中	-12479
椰子	-12480
橡皮	-12481
正宗	-12482
步伐	-12483
永恒	-12484
泡沫	-12485
洗澡	-12486
流动	-12487
浮潜	-12488
海中	-12489
涂在	-12490
消防	-12491
漫长	-12492
潮流	-12493
激素	-12494
炒匀	-12495
烦躁	-12496
热水	-12497
热浪	-12498
热身	-12499
爱与	-12500
独具	-12501
珍妮	-12502
珠宝	-12503
班级	-12504
瑞斯	-12505
用了	-12506
疗法	-12507
的开	-12508
的最	-12509
的组	-12510
皇家	-12511
直播	-12512
相伴	-12513
相隔	-12514
省份	-12515
看过	-12516
着装	-12517
瞩目	-12518
砂糖	-12519
祖先	-12520
禁止	-12521
积分	-12522
空缺	-12523
立刻	-12524
算式	-12525
米兰	-12526
类比	-12527
粉和	-12528
紧迫	-12529
红茶	-12530
纯净	-12531
绝佳	-12532
绽放	-12533
缩小	-12534
罕见	-12535
羊肉	-12536
美感	-12537
胜任	-12538
腿部	-12539
至于	-12540
舒服	-12541
芦笋	-12542
蒙娜	-12543
蓝天	-12544
薪资	-12545
行和	-12546
行李	-12547
衣裙	-12548
被困	-12549
要在	-12550
视着	-12551
警长	-12552
讲解	-12553
证实	-12554
语调	-12555
请在	-12556
请用	-12557
账号	-12558
赞助	-12559
赫敏	-12560
走到	-12561
赵六	-12562
车型	-12563
转变	-12564
转录	-12565
轻柔	-12566
较大	-12567
辉煌	-12568
迎来	-12569
还原	-12570
这会	-12571
进攻	-12572
进食	-12573
违法	-12574
连环	-12575
连锁	-12576
迷人	-12577
选取	-12578
通用	-12579
通话	-12580
通货	-12581
通风	-12582
造林	-12583
那时	-12584
部位	-12585
配角	-12586
重力	-12587
重重	-12588
长篇	-12589
防疫	-12590
降临	-12591
降解	-12592
除法	-12593
雕刻	-12594
雨水	-12595
霍格	-12596
霸王	-12597
青年	-12598
面容	-12599
革新	-12600
颠倒	-12601
饲养	-12602
魔幻	-12603
鲍勃	-12604
鲑鱼	-12605
鳄鱼	-12606
黑猫	-12607
,25	-12608
15,	-12609
2.5	-12610
50,	-12611
:18	-12612
CNN	-12613
Can	-12614
Don	-12615
LED	-12616
NBA	-12617
Rob	-12618
ale	-12619
ars	-12620
ath	-12621
bit	-12622
ela	-12623
epp	-12624
etf	-12625
iOS	-12626
iri	-12627
ism	-12628
lan	-12629
liv	-12630
lix	-12631
lor	-12632
rom	-12633
run	-12634
ung	-12635
{5}	-12636
▁At	-12637
▁Su	-12638
▁Te	-12639
▁ca	-12640
▁je	-12641
▁ju	-12642
▁pa	-12643
▁vo	-12644
▁ét	-12645
▁例如	-12646
▁偶数	-12647
▁关于	-12648
▁冬天	-12649
▁分钟	-12650
▁创新	-12651
▁口号	-12652
▁在线	-12653
▁小狗	-12654
▁张华	-12655
▁彼得	-12656
▁我是	-12657
▁指定	-12658
▁朋友	-12659
▁查找	-12660
▁洋葱	-12661
▁王明	-12662
▁男人	-12663
▁短语	-12664
▁示例	-12665
▁第四	-12666
▁纠正	-12667
▁职位	-12668
▁蘑菇	-12669
▁语言	-12670
▁说明	-12671
▁这场	-12672
▁随机	-12673
一年内	-12674
不停地	-12675
世纪末	-12676
中学习	-12677
为主题	-12678
为学生	-12679
也很好	-12680
人名和	-12681
今年的	-12682
从小就	-12683
他已经	-12684
他感到	-12685
以便于	-12686
以防止	-12687
价格为	-12688
但他的	-12689
作品的	-12690
你好吗	-12691
全世界	-12692
全球化	-12693
公正的	-12694
内分泌	-12695
冥王星	-12696
决定去	-12697
几年中	-12698
分辨率	-12699
切碎的	-12700
制成的	-12701
剧情片	-12702
副作用	-12703
医生和	-12704
去旅行	-12705
去游泳	-12706
去角质	-12707
反馈和	-12708
发动机	-12709
发现和	-12710
变量的	-12711
古希腊	-12712
可扩展	-12713
史密斯	-12714
同义句	-12715
和产品	-12716
和休息	-12717
和你的	-12718
和利用	-12719
和功能	-12720
和反馈	-12721
和她的	-12722
和技巧	-12723
和测试	-12724
和繁荣	-12725
和能源	-12726
和能量	-12727
和自信	-12728
和营销	-12729
和蔬菜	-12730
和隐私	-12731
咖啡和	-12732
回到家	-12733
因为她	-12734
在夏季	-12735
在您的	-12736
在整个	-12737
在网上	-12738
地发现	-12739
地看着	-12740
地进行	-12741
场景中	-12742
基因组	-12743
外星人	-12744
太多的	-12745
奥斯汀	-12746
威尼斯	-12747
字母表	-12748
季节性	-12749
孤独感	-12750
它具有	-12751
它是由	-12752
实习生	-12753
对不起	-12754
将任务	-12755
小妙招	-12756
小猫咪	-12757
已经是	-12758
平方根	-12759
平静和	-12760
年成立	-12761
并努力	-12762
并回答	-12763
并定期	-12764
并建立	-12765
并指出	-12766
并更正	-12767
并避免	-12768
建议在	-12769
开放性	-12770
必需品	-12771
必须要	-12772
您应该	-12773
想法吗	-12774
成就和	-12775
成年人	-12776
我不会	-12777
我也很	-12778
我们都	-12779
我愿意	-12780
我的爱	-12781
或主题	-12782
技术将	-12783
拉布拉	-12784
挑战性	-12785
接受了	-12786
推断出	-12787
数的和	-12788
新公司	-12789
无监督	-12790
时期的	-12791
是位于	-12792
是英国	-12793
晚上的	-12794
普通的	-12795
更快速	-12796
更流畅	-12797
最后一	-12798
有一位	-12799
有关该	-12800
有几个	-12801
有名的	-12802
有时会	-12803
服务器	-12804
来满足	-12805
来表达	-12806
极高的	-12807
森林中	-12808
正常的	-12809
正式的	-12810
毅力和	-12811
每个月	-12812
水污染	-12813
污染物	-12814
涂抹在	-12815
物体的	-12816
特点是	-12817
环境下	-12818
理论和	-12819
疯狂的	-12820
的三个	-12821
的乐趣	-12822
的人名	-12823
的传统	-12824
的关于	-12825
的制定	-12826
的大型	-12827
的天数	-12828
的威胁	-12829
的家庭	-12830
的心态	-12831
的最新	-12832
的格式	-12833
的模型	-12834
的结构	-12835
的职位	-12836
的认识	-12837
的责任	-12838
的阳光	-12839
监管和	-12840
真实的	-12841
等其他	-12842
纳美族	-12843
给用户	-12844
胆固醇	-12845
能不能	-12846
能量和	-12847
表面上	-12848
被用于	-12849
要考虑	-12850
规则和	-12851
角色的	-12852
解决了	-12853
解释了	-12854
让它们	-12855
评论和	-12856
该手机	-12857
该计划	-12858
谢谢您	-12859
负责人	-12860
较大的	-12861
输出为	-12862
输出该	-12863
这个新	-12864
进入了	-12865
连衣裙	-12866
迪卡普	-12867
针对性	-12868
错过的	-12869
锻炼的	-12870
阿瑞斯	-12871
降低了	-12872
需要多	-12873
面积和	-12874
预防和	-12875
飞行员	-12876
高纤维	-12877
鸡尾酒	-12878
黑寡妇	-12879
180°	-12880
2016	-12881
:100	-12882
:500	-12883
Anna	-12884
Your	-12885
anic	-12886
cean	-12887
char	-12888
eeth	-12889
ency	-12890
fect	-12891
frac	-12892
ibus	-12893
ison	-12894
oman	-12895
ones	-12896
ours	-12897
raph	-12898
sqrt	-12899
uits	-12900
weet	-12901
work	-12902
▁12.	-12903
▁38,	-12904
▁41,	-12905
▁Act	-12906
▁Don	-12907
▁Haw	-12908
▁Let	-12909
▁[4,	-12910
▁enc	-12911
▁eng	-12912
▁ess	-12913
▁fac	-12914
▁fol	-12915
▁got	-12916
▁inf	-12917
▁mis	-12918
▁own	-12919
▁pas	-12920
▁pol	-12921
▁top	-12922
▁typ	-12923
▁下面是	-12924
▁中位数	-12925
▁主人公	-12926
▁亚马逊	-12927
▁在当今	-12928
▁夏威夷	-12929
▁我觉得	-12930
▁有一天	-12931
▁请帮我	-12932
▁请解释	-12933
一些建议	-12934
不同类型	-12935
不断增长	-12936
与我联系	-12937
世界大战	-12938
两个文本	-12939
两段文本	-12940
个不同的	-12941
个人简历	-12942
个单词的	-12943
中央公园	-12944
主要包括	-12945
主要角色	-12946
交通运输	-12947
什么事情	-12948
今天早上	-12949
今天晚上	-12950
他们一起	-12951
他的工作	-12952
以下三个	-12953
以下信息	-12954
以下几点	-12955
以确保其	-12956
任何时候	-12957
伦理问题	-12958
你是如何	-12959
你的问题	-12960
使用这些	-12961
保护自己	-12962
保持一致	-12963
保持身体	-12964
值得观看	-12965
克里斯蒂	-12966
全球人口	-12967
公式计算	-12968
共同目标	-12969
写作能力	-12970
几十年里	-12971
列举三个	-12972
勾股定理	-12973
包含至少	-12974
化学物质	-12975
原力觉醒	-12976
去了超市	-12977
发展方向	-12978
受到影响	-12979
可供选择	-12980
同比增长	-12981
名胜古迹	-12982
和关键词	-12983
和标准差	-12984
咨询医生	-12985
因人而异	-12986
在线教育	-12987
在这方面	-12988
坚持下去	-12989
基础知识	-12990
增强现实	-12991
大多数人	-12992
天气信息	-12993
天气状况	-12994
如何改变	-12995
娱乐活动	-12996
学习能力	-12997
它的主要	-12998
安排一次	-12999
实体识别	-13000
实验结果	-13001
小数点后	-13002
尽量减少	-13003
工作时间	-13004
市场推广	-13005
平均数为	-13006
并尽可能	-13007
广告口号	-13008
当前时间	-13009
当地居民	-13010
形成一个	-13011
思考如何	-13012
总体来说	-13013
我们希望	-13014
我们无法	-13015
我建议您	-13016
我期待着	-13017
或关键词	-13018
投资策略	-13019
撰写一个	-13020
放松自己	-13021
政府应该	-13022
文本编辑	-13023
文章内容	-13024
无法逃脱	-13025
无限战争	-13026
是否属于	-13027
更具体的	-13028
更加关注	-13029
最相关的	-13030
未来教育	-13031
本文介绍	-13032
植树造林	-13033
正确答案	-13034
每天都会	-13035
没有时间	-13036
特别喜欢	-13037
特色美食	-13038
独立战争	-13039
用于测试	-13040
的平方根	-13041
的情感是	-13042
的技术和	-13043
的方法来	-13044
的烤箱中	-13045
目前正在	-13046
目标检测	-13047
相比之下	-13048
短时间内	-13049
社会责任	-13050
种不同的	-13051
科技创新	-13052
空气清新	-13053
继续努力	-13054
绿色包装	-13055
翻炒均匀	-13056
考虑一下	-13057
联系信息	-13058
联系我们	-13059
自由自在	-13060
节点的值	-13061
英语水平	-13062
蒙娜丽莎	-13063
行动起来	-13064
表达了对	-13065
设备进行	-13066
财务报告	-13067
越来越大	-13068
边的长度	-13069
迅速发展	-13070
这一目标	-13071
这个行业	-13072
这种变化	-13073
这项任务	-13074
这项研究	-13075
进行摘要	-13076
进行比较	-13077
进行评估	-13078
进行预测	-13079
通货膨胀	-13080
通过学习	-13081
通过对话	-13082
通过这些	-13083
金融机构	-13084
锻炼计划	-13085
长时间的	-13086
问题之一	-13087
需要编辑	-13088
霸王别姬	-13089
非常友好	-13090
预防疾病	-13091
领先地位	-13092
领域之一	-13093
魔法学校	-13094
ectet	-13095
ences	-13096
erful	-13097
ights	-13098
ision	-13099
oshop	-13100
print	-13101
reams	-13102
views	-13103
▁2016	-13104
▁IMDb	-13105
▁King	-13106
▁Test	-13107
▁Wash	-13108
▁hard	-13109
▁hope	-13110
▁mess	-13111
▁mind	-13112
▁open	-13113
▁risk	-13114
▁serv	-13115
▁show	-13116
▁song	-13117
▁turn	-13118
▁verb	-13119
▁为我推荐	-13120
▁分类以下	-13121
▁在另一个	-13122
▁提供一些	-13123
▁目标语言	-13124
▁给定一些	-13125
▁给我提供	-13126
▁编写一封	-13127
▁莎士比亚	-13128
不同颜色的	-13129
不错的选择	-13130
世界杯足球	-13131
严重的影响	-13132
以下句子中	-13133
余弦相似度	-13134
你可以通过	-13135
你能告诉我	-13136
全球变暖对	-13137
养成良好的	-13138
写一个标题	-13139
写一篇关于	-13140
包括他们的	-13141
去公园散步	-13142
发挥自己的	-13143
同义词替换	-13144
听起来很棒	-13145
因为它可以	-13146
困难和挑战	-13147
如何有效地	-13148
将其中所有	-13149
将变得更加	-13150
将它们按照	-13151
建于公元前	-13152
心血管健康	-13153
成为了一名	-13154
我们的目标	-13155
我们的社会	-13156
我无法回答	-13157
我正在寻找	-13158
或语法错误	-13159
指定的单词	-13160
提升自己的	-13161
效率和质量	-13162
数字化时代	-13163
文本数据集	-13164
新闻报道或	-13165
方面的建议	-13166
明确的目标	-13167
是一种通过	-13168
是很重要的	-13169
智能手机的	-13170
模型的性能	-13171
正则表达式	-13172
正确的单词	-13173
深刻的印象	-13174
环保的文章	-13175
的基础知识	-13176
的应用程序	-13177
的环境问题	-13178
神经网络等	-13179
翻译为法语	-13180
行业的发展	-13181
足球俱乐部	-13182
身体的健康	-13183
这两个句子	-13184
这篇文章中	-13185
进行分析和	-13186
迪卡普里奥	-13187
遇到了一些	-13188
问题和挑战	-13189
需要不断地	-13190
非常出色的	-13191
非常有前途	-13192
非常有趣的	-13193
首席执行官	-13194
alking	-13195
elcome	-13196
etflix	-13197
length	-13198
ressed	-13199
uation	-13200
versed	-13201
▁China	-13202
▁Great	-13203
▁Sally	-13204
▁autom	-13205
▁being	-13206
▁birds	-13207
▁ideas	-13208
▁integ	-13209
▁lives	-13210
▁magna	-13211
▁right	-13212
▁since	-13213
▁sunny	-13214
▁一位年轻的	-13215
▁写一篇文章	-13216
▁将一篇文章	-13217
▁计算机科学	-13218
▁请提供一份	-13219
与家人和朋友	-13220
两个日期之间	-13221
个人信息泄露	-13222
人工智能算法	-13223
令人难以置信	-13224
以下几个方面	-13225
使用社交媒体	-13226
保护个人信息	-13227
全球范围内的	-13228
如何制作一杯	-13229
完成这个项目	-13230
我们可以考虑	-13231
我会考虑一下	-13232
提供一个标题	-13233
改善睡眠质量	-13234
最畅销的产品	-13235
模型的准确性	-13236
没有语法错误	-13237
海洋生态系统	-13238
生成一个类似	-13239
给定文本中的	-13240
计算它们的和	-13241
进行情感分类	-13242
随着深度学习	-13243
000,000	-13244
agement	-13245
entence	-13246
▁access	-13247
▁around	-13248
▁dinner	-13249
▁things	-13250
▁给出两个句子	-13251
▁给出两个日期	-13252
▁给定一个主题	-13253
之间的相互作用	-13254
也是非常重要的	-13255
人脸识别技术的	-13256
健康饮食的建议	-13257
全球变暖的影响	-13258
可行的解决方案	-13259
同义词或近义词	-13260
天王星和海王星	-13261
将其翻译成法语	-13262
得到了广泛应用	-13263
技术的不断进步	-13264
描述你最喜欢的	-13265
有效的时间管理	-13266
解决问题的能力	-13267
这是一个很好的	-13268
预训练语言模型	-13269
hotoshop	-13270
iversity	-13271
lationsh	-13272
password	-13273
▁aujourd	-13274
▁outside	-13275
▁various	-13276
▁根据提供的输入	-13277
▁给出一个简单的	-13278
使其更加简洁明了	-13279
可以提高工作效率	-13280
▁analysis	-13281
▁function	-13282
▁machines	-13283
▁promener	-13284
▁specific	-13285
▁给定一个数学问题	-13286
▁给我推荐一本关于	-13287
减少温室气体的排放	-13288
随着技术的不断发展	-13289
▁consectet	-13290
越来越多的人开始关注	-13291
▁Washington	-13292
▁relationsh	-13293
▁Additionally	-13294
+1	-13295
,4	-13296
/3	-13297
2}	-13298
57	-13299
5]	-13300
6-	-13301
6:	-13302
78	-13303
8/	-13304
88	-13305
:`	-13306
="	-13307
AA	-13308
De	-13309
IP	-13310
LL	-13311
La	-13312
To	-13313
WI	-13314
[]	-13315
_1	-13316
mo	-13317
sw	-13318
ze	-13319
zh	-13320
▁.	-13321
▁伊	-13322
▁做	-13323
▁夜	-13324
▁开	-13325
▁或	-13326
▁月	-13327
▁油	-13328
▁组	-13329
▁绿	-13330
▁苏	-13331
▁陈	-13332
、3	-13333
。)	-13334
》)	-13335
》《	-13336
一体	-13337
一套	-13338
一无	-13339
万元	-13340
上一	-13341
上司	-13342
上学	-13343
上方	-13344
上瘾	-13345
上级	-13346
下跌	-13347
不及	-13348
不必	-13349
不拔	-13350
与狗	-13351
两者	-13352
中生	-13353
之城	-13354
之夜	-13355
乐于	-13356
乘法	-13357
习性	-13358
了对	-13359
二战	-13360
产权	-13361
亮度	-13362
亮点	-13363
他向	-13364
代词	-13365
以色	-13366
伏地	-13367
传承	-13368
估计	-13369
低头	-13370
体力	-13371
余晖	-13372
作曲	-13373
依旧	-13374
依靠	-13375
倡导	-13376
克尔	-13377
典型	-13378
减法	-13379
几十	-13380
凡尔	-13381
利亚	-13382
利弊	-13383
刷牙	-13384
刹车	-13385
前沿	-13386
加大	-13387
加油	-13388
加班	-13389
务必	-13390
劳动	-13391
勃勃	-13392
千里	-13393
南方	-13394
占有	-13395
卡布	-13396
卡特	-13397
双脚	-13398
发育	-13399
发酵	-13400
句号	-13401
可在	-13402
吃得	-13403
听从	-13404
周三	-13405
和其	-13406
和打	-13407
和长	-13408
哥特	-13409
唐代	-13410
唐尼	-13411
四处	-13412
四季	-13413
四川	-13414
地的	-13415
场白	-13416
堆积	-13417
塞尔	-13418
填充	-13419
处罚	-13420
大楼	-13421
大纲	-13422
大胆	-13423
奇诺	-13424
奔驰	-13425
套餐	-13426
妥善	-13427
字词	-13428
学到	-13429
学期	-13430
安防	-13431
小刚	-13432
小溪	-13433
少的	-13434
尚未	-13435
就医	-13436
山火	-13437
嵌入	-13438
差距	-13439
布置	-13440
带和	-13441
广大	-13442
庇护	-13443
底部	-13444
废气	-13445
康纳	-13446
归来	-13447
当她	-13448
微调	-13449
心脑	-13450
惊恐	-13451
愈发	-13452
成都	-13453
我叫	-13454
我被	-13455
打入	-13456
批准	-13457
抢劫	-13458
报表	-13459
拉丁	-13460
拜登	-13461
拳击	-13462
拼音	-13463
拿出	-13464
指控	-13465
排除	-13466
接种	-13467
推崇	-13468
插图	-13469
摩擦	-13470
攻略	-13471
整合	-13472
斯塔	-13473
方位	-13474
无疑	-13475
早在	-13476
早起	-13477
星级	-13478
是有	-13479
晚睡	-13480
智商	-13481
暴食	-13482
暴饮	-13483
最爱	-13484
期货	-13485
机智	-13486
来电	-13487
板块	-13488
极限	-13489
极高	-13490
果实	-13491
架上	-13492
某一	-13493
树立	-13494
桃花	-13495
概要	-13496
此事	-13497
气态	-13498
汇报	-13499
沉没	-13500
油和	-13501
沿海	-13502
泄漏	-13503
洗衣	-13504
活泼	-13505
活跃	-13506
浓度	-13507
海盗	-13508
深邃	-13509
漫威	-13510
点半	-13511
烟草	-13512
爆香	-13513
物的	-13514
狗是	-13515
瑞典	-13516
瑞安	-13517
生平	-13518
用心	-13519
甲烷	-13520
电气	-13521
电源	-13522
男女	-13523
疑虑	-13524
疲倦	-13525
白天	-13526
白糖	-13527
皇帝	-13528
盗窃	-13529
直观	-13530
省略	-13531
眼神	-13532
着我	-13533
着歌	-13534
着迷	-13535
破解	-13536
硕士	-13537
祈使	-13538
福雷	-13539
积木	-13540
移植	-13541
税务	-13542
简称	-13543
精湛	-13544
素描	-13545
约定	-13546
绚烂	-13547
继承	-13548
缩短	-13549
罗恩	-13550
美容	-13551
考古	-13552
而出	-13553
耐药	-13554
联想	-13555
肺部	-13556
脆弱	-13557
芬奇	-13558
落在	-13559
葫芦	-13560
蒋勋	-13561
蒜蓉	-13562
薄片	-13563
虐待	-13564
表述	-13565
西方	-13566
言辞	-13567
订阅	-13568
让其	-13569
讽刺	-13570
试验	-13571
诗意	-13572
请将	-13573
诸如	-13574
谦虚	-13575
负荷	-13576
资格	-13577
走向	-13578
车子	-13579
载人	-13580
过渡	-13581
这条	-13582
这道	-13583
迪亚	-13584
适中	-13585
途中	-13586
配乐	-13587
配以	-13588
配件	-13589
配有	-13590
酒吧	-13591
酵母	-13592
重写	-13593
银员	-13594
门窗	-13595
队长	-13596
阶层	-13597
限度	-13598
陶醉	-13599
陷阱	-13600
随风	-13601
集体	-13602
震惊	-13603
青睐	-13604
非法	-13605
预留	-13606
领悟	-13607
风力	-13608
风和	-13609
饰品	-13610
饰演	-13611
驾游	-13612
高于	-13613
高楼	-13614
高管	-13615
鱼肉	-13616
麸质	-13617
黄山	-13618
黑白	-13619
(0,	-13620
(2)	-13621
)).	-13622
,19	-13623
,23	-13624
.""	-13625
/10	-13626
1/2	-13627
11,	-13628
110	-13629
250	-13630
25°	-13631
99.	-13632
999	-13633
:1)	-13634
:50	-13635
And	-13636
Car	-13637
How	-13638
ISA	-13639
You	-13640
ann	-13641
den	-13642
eek	-13643
elt	-13644
fit	-13645
fox	-13646
gor	-13647
ité	-13648
lab	-13649
oke	-13650
opp	-13651
ump	-13652
ute	-13653
▁("	-13654
▁0:	-13655
▁29	-13656
▁2]	-13657
▁34	-13658
▁3:	-13659
▁42	-13660
▁Do	-13661
▁II	-13662
▁Ke	-13663
▁Pe	-13664
▁[]	-13665
▁du	-13666
▁eu	-13667
▁ti	-13668
▁{'	-13669
▁一份	-13670
▁上午	-13671
▁主语	-13672
▁享受	-13673
▁优点	-13674
▁创作	-13675
▁司机	-13676
▁喜剧	-13677
▁坐姿	-13678
▁多吃	-13679
▁学历	-13680
▁实现	-13681
▁寻求	-13682
▁幸福	-13683
▁成功	-13684
▁投资	-13685
▁放入	-13686
▁故宫	-13687
▁早上	-13688
▁汽车	-13689
▁热身	-13690
▁然后	-13691
▁真诚	-13692
▁睡眠	-13693
▁祝好	-13694
▁等待	-13695
▁类别	-13696
▁经常	-13697
▁缺点	-13698
▁网站	-13699
▁网络	-13700
▁草莓	-13701
▁让我	-13702
▁起始	-13703
▁足球	-13704
▁这位	-13705
▁这篇	-13706
▁采用	-13707
▁销售	-13708
▁顾客	-13709
▁高兴	-13710
一幅画	-13711
万年前	-13712
不再是	-13713
不必要	-13714
不正确	-13715
不稳定	-13716
不见了	-13717
与传统	-13718
与偏见	-13719
与客户	-13720
与生活	-13721
专注力	-13722
东京塔	-13723
个性和	-13724
中寻找	-13725
为每个	-13726
主要由	-13727
乳制品	-13728
了多少	-13729
了整个	-13730
于是他	-13731
什么呢	-13732
他们会	-13733
他们所	-13734
他认为	-13735
令人心	-13736
以使其	-13737
以及其	-13738
以增加	-13739
以色列	-13740
优质的	-13741
传统和	-13742
但不要	-13743
低成本	-13744
你打算	-13745
使它们	-13746
便利性	-13747
便宜的	-13748
保持着	-13749
信任度	-13750
全谷类	-13751
共和国	-13752
关系和	-13753
农业和	-13754
创造更	-13755
判断它	-13756
力资源	-13757
加剧了	-13758
动画片	-13759
劳动力	-13760
北京的	-13761
半小时	-13762
半径为	-13763
压力的	-13764
原因是	-13765
反思和	-13766
只是一	-13767
可通过	-13768
史上的	-13769
合并为	-13770
合理地	-13771
同样的	-13772
向他们	-13773
和一位	-13774
和两个	-13775
和任务	-13776
和努力	-13777
和同事	-13778
和土地	-13779
和天气	-13780
和广告	-13781
和思考	-13782
和投资	-13783
和无助	-13784
和条件	-13785
和竞争	-13786
和系统	-13787
和经济	-13788
和设计	-13789
和财产	-13790
和需求	-13791
和鼓励	-13792
在不断	-13793
在交通	-13794
在技术	-13795
在职场	-13796
地使用	-13797
地处理	-13798
地点和	-13799
均匀地	-13800
城市化	-13801
基础上	-13802
多元化	-13803
好吃的	-13804
它们会	-13805
实验室	-13806
容易被	-13807
对我的	-13808
对电影	-13809
将持续	-13810
将永远	-13811
小王子	-13812
工作日	-13813
干净的	-13814
平方米	-13815
并为其	-13816
并保证	-13817
并尝试	-13818
并希望	-13819
并给予	-13820
幽默感	-13821
开始前	-13822
快乐的	-13823
思维的	-13824
性质和	-13825
总是在	-13826
您觉得	-13827
惊喜和	-13828
想和你	-13829
想学习	-13830
愉悦的	-13831
感谢信	-13832
成就感	-13833
我想要	-13834
我感觉	-13835
我爱你	-13836
我看了	-13837
我看来	-13838
我确实	-13839
或事物	-13840
战胜了	-13841
所在的	-13842
所有人	-13843
投入到	-13844
探索新	-13845
接触到	-13846
控制和	-13847
摄影师	-13848
新兴的	-13849
新客户	-13850
旅行的	-13851
旅行者	-13852
明月光	-13853
是如此	-13854
是导致	-13855
是巴黎	-13856
是当前	-13857
显著的	-13858
智能体	-13859
更改为	-13860
更美好	-13861
替换成	-13862
有兴趣	-13863
有效性	-13864
有逻辑	-13865
未提供	-13866
材料的	-13867
来检查	-13868
来生成	-13869
来确保	-13870
柔韧性	-13871
植物油	-13872
橡皮筋	-13873
正整数	-13874
正方形	-13875
段落中	-13876
水平和	-13877
汉堡包	-13878
法律和	-13879
洪水和	-13880
活力和	-13881
海南岛	-13882
海岸线	-13883
海王星	-13884
消失了	-13885
深入的	-13886
添加剂	-13887
游泳和	-13888
灵活的	-13889
热衷于	-13890
特别的	-13891
王小明	-13892
生产的	-13893
生长和	-13894
电影中	-13895
电影节	-13896
男主角	-13897
百分比	-13898
的东西	-13899
的产生	-13900
的动作	-13901
的地位	-13902
的增长	-13903
的完美	-13904
的密码	-13905
的开发	-13906
的措施	-13907
的旅程	-13908
的树木	-13909
的浪费	-13910
的海水	-13911
的独特	-13912
的知识	-13913
的示例	-13914
的科幻	-13915
的简单	-13916
的管理	-13917
的类别	-13918
的练习	-13919
的论文	-13920
的诊断	-13921
的词汇	-13922
的进步	-13923
的风格	-13924
看电视	-13925
破坏和	-13926
社会中	-13927
程度地	-13928
第一段	-13929
第二天	-13930
等疾病	-13931
简单但	-13932
简洁的	-13933
类型是	-13934
系统和	-13935
约翰逊	-13936
维护和	-13937
编写的	-13938
网络上	-13939
自然界	-13940
融入到	-13941
行星的	-13942
要避免	-13943
认为是	-13944
词汇表	-13945
该问题	-13946
说明书	-13947
请确保	-13948
购物的	-13949
超过了	-13950
跑步机	-13951
距离和	-13952
辣椒粉	-13953
过滤器	-13954
还不错	-13955
还可能	-13956
适合在	-13957
适应性	-13958
选项中	-13959
通常比	-13960
通常由	-13961
邀请函	-13962
部门的	-13963
都具有	-13964
都能够	-13965
金毛寻	-13966
钢琴家	-13967
需要将	-13968
项任务	-13969
项目中	-13970
马里奥	-13971
黄色的	-13972
0000	-13973
1234	-13974
1997	-13975
2009	-13976
:200	-13977
Book	-13978
HIIT	-13979
Rose	-13980
WIFI	-13981
amer	-13982
auty	-13983
berg	-13984
body	-13985
data	-13986
fast	-13987
ides	-13988
imum	-13989
inal	-13990
ocum	-13991
onom	-13992
pany	-13993
ranç	-13994
roso	-13995
vest	-13996
▁...	-13997
▁1/4	-13998
▁27,	-13999
▁28,	-14000
▁39,	-14001
▁43,	-14002
▁47,	-14003
▁48,	-14004
▁Gal	-14005
▁Hum	-14006
▁Mia	-14007
▁Par	-14008
▁ass	-14009
▁beh	-14010
▁buy	-14011
▁iss	-14012
▁lik	-14013
▁liv	-14014
▁med	-14015
▁mid	-14016
▁neg	-14017
▁ref	-14018
▁web	-14019
▁为一本	-14020
▁云计算	-14021
▁区块链	-14022
▁原文本	-14023
▁对不起	-14024
▁将一篇	-14025
▁帮助我	-14026
▁我相信	-14027
▁把以下	-14028
▁燕麦粥	-14029
一个适合	-14030
一直以来	-14031
一起工作	-14032
上映年份	-14033
下面这个	-14034
不仅能够	-14035
不容错过	-14036
个元素的	-14037
中位数为	-14038
也是一种	-14039
了解您的	-14040
互相支持	-14041
亚历克斯	-14042
人们开始	-14043
什么问题	-14044
介绍一些	-14045
从此以后	-14046
从而导致	-14047
他们需要	-14048
他的公司	-14049
以下方法	-14050
以及一些	-14051
但是它们	-14052
你能不能	-14053
使得机器	-14054
使用体验	-14055
促销活动	-14056
保持警惕	-14057
信息安全	-14058
修改建议	-14059
做些什么	-14060
儿童小说	-14061
允许用户	-14062
公司担任	-14063
具有重要	-14064
出生日期	-14065
分类结果	-14066
到了他的	-14067
制定一份	-14068
包含一些	-14069
医疗机构	-14070
单元测试	-14071
卡布奇诺	-14072
历史数据	-14073
历史文化	-14074
压实效果	-14075
发现新的	-14076
只有通过	-14077
可以分为	-14078
合作机会	-14079
合理利用	-14080
同时也能	-14081
后的版本	-14082
和朋友们	-14083
咖啡店的	-14084
品牌之一	-14085
售后服务	-14086
商业机会	-14087
在句子中	-14088
在森林里	-14089
在比赛中	-14090
培训课程	-14091
大约需要	-14092
大规模的	-14093
如下所示	-14094
如果您能	-14095
如果需要	-14096
字符串的	-14097
存储空间	-14098
学习计划	-14099
它们的和	-14100
尤为重要	-14101
居住环境	-14102
工作岗位	-14103
布恩迪亚	-14104
带来一些	-14105
带来很多	-14106
带来更多	-14107
平均数是	-14108
并不知道	-14109
并提出了	-14110
度假胜地	-14111
心情愉悦	-14112
心理压力	-14113
心脑血管	-14114
思维方式	-14115
您的回复	-14116
情感标签	-14117
感觉非常	-14118
成为我们	-14119
我不喜欢	-14120
我也喜欢	-14121
我们不能	-14122
我会好好	-14123
我注意到	-14124
或电视剧	-14125
才能真正	-14126
打造一个	-14127
扣人心弦	-14128
找到自己	-14129
投资人的	-14130
抽出时间	-14131
招聘经理	-14132
探索这个	-14133
提供免费	-14134
教学方法	-14135
数字工具	-14136
数据处理	-14137
文化背景	-14138
新产品的	-14139
方式之一	-14140
无人驾驶	-14141
无线网络	-14142
无论您是	-14143
是中国的	-14144
是太阳系	-14145
是我们的	-14146
是指地球	-14147
是指通过	-14148
是蓝色的	-14149
智能手环	-14150
暴饮暴食	-14151
更加智能	-14152
更加清晰	-14153
更容易地	-14154
最先进的	-14155
有意义的	-14156
有机食品	-14157
未来科技	-14158
正在努力	-14159
每个元素	-14160
每天需要	-14161
气候变暖	-14162
沟通技巧	-14163
测试文本	-14164
演员列表	-14165
环保产品	-14166
环保活动	-14167
环保问题	-14168
生存下来	-14169
生物多样	-14170
番茄工作	-14171
的一本书	-14172
的准确性	-14173
的前提下	-14174
的可能性	-14175
的名称和	-14176
的大学生	-14177
的大小和	-14178
的情感和	-14179
相关问题	-14180
相对较低	-14181
睡眠环境	-14182
矿物质和	-14183
福雷斯特	-14184
科技新闻	-14185
科技领域	-14186
积极参与	-14187
积极影响	-14188
积极心态	-14189
篮球比赛	-14190
精神健康	-14191
纯素食品	-14192
练习瑜伽	-14193
给出答案	-14194
继续前行	-14195
考试成绩	-14196
职业目标	-14197
肌肉力量	-14198
能够识别	-14199
自我意识	-14200
至金黄色	-14201
英文段落	-14202
英文短文	-14203
莱昂纳多	-14204
虚拟助手	-14205
要求助手	-14206
训练数据	-14207
词性标注	-14208
语法检查	-14209
语法结构	-14210
语法规则	-14211
谢谢老师	-14212
负面还是	-14213
还有助于	-14214
这个主题	-14215
这个任务	-14216
这些建议	-14217
这些目标	-14218
这是我们	-14219
这款手机	-14220
适合出门	-14221
适合在家	-14222
销售趋势	-14223
间歇训练	-14224
随机密码	-14225
需要全球	-14226
非常高兴	-14227
预测方法	-14228
预测模型	-14229
飞速发展	-14230
黑客帝国	-14231
黑猫警长	-14232
鼓励人们	-14233
10-12	-14234
Frank	-14235
_____	-14236
ables	-14237
anced	-14238
aring	-14239
asure	-14240
ately	-14241
atles	-14242
brown	-14243
ensor	-14244
ilent	-14245
iment	-14246
irgin	-14247
ively	-14248
oring	-14249
rench	-14250
shine	-14251
ustom	-14252
world	-14253
▁1000	-14254
▁2014	-14255
▁Keep	-14256
▁Love	-14257
▁More	-14258
▁best	-14259
▁cher	-14260
▁coll	-14261
▁deep	-14262
▁exam	-14263
▁fast	-14264
▁fish	-14265
▁hand	-14266
▁mang	-14267
▁must	-14268
▁near	-14269
▁poss	-14270
▁rele	-14271
▁role	-14272
▁self	-14273
▁sure	-14274
▁tree	-14275
▁一个包含	-14276
▁一篇关于	-14277
▁仰卧起坐	-14278
▁分类下列	-14279
▁创作一个	-14280
▁单词列表	-14281
▁我们应该	-14282
▁电影评论	-14283
▁解释以下	-14284
▁设计一个	-14285
▁这家餐厅	-14286
▁避免使用	-14287
一个简单的	-14288
一句话描述	-14289
三个不同的	-14290
下面这段话	-14291
专业知识和	-14292
世界范围内	-14293
中最重要的	-14294
为用户提供	-14295
之间的区别	-14296
了解他们的	-14297
二氧化碳等	-14298
产生的影响	-14299
人们可以在	-14300
人们的关注	-14301
令人惊叹的	-14302
企业和个人	-14303
企业和组织	-14304
健身房锻炼	-14305
傲慢与偏见	-14306
全球性问题	-14307
出现最频繁	-14308
分散注意力	-14309
包含关键词	-14310
去中心化的	-14311
反馈和建议	-14312
发生了一起	-14313
可能会出现	-14314
合适的标题	-14315
和应用场景	-14316
和法律问题	-14317
和电话号码	-14318
在医疗保健	-14319
在这个领域	-14320
处理和分析	-14321
夏季奥运会	-14322
如果您需要	-14323
存在的问题	-14324
季度销售额	-14325
安静的地方	-14326
富含蛋白质	-14327
将其转化为	-14328
应用程序和	-14329
度过了一个	-14330
开始了一段	-14331
很大的影响	-14332
律师事务所	-14333
情感分类器	-14334
意大利餐厅	-14335
我们会尽快	-14336
我们的客户	-14337
找到所有的	-14338
抽出时间来	-14339
提供足够的	-14340
提高生产力	-14341
数据和算法	-14342
时间和金钱	-14343
明天的天气	-14344
是地球上最	-14345
是最重要的	-14346
更多的信息	-14347
最大的行星	-14348
最终找到了	-14349
有什么问题	-14350
未来技术的	-14351
次世界大战	-14352
欣赏美丽的	-14353
正确的句子	-14354
现实生活中	-14355
用户输入的	-14356
的中文文章	-14357
的新闻报道	-14358
的电影列表	-14359
相关的句子	-14360
真是太棒了	-14361
知识和经验	-14362
确保我们的	-14363
神经网络的	-14364
第一个字母	-14365
组成的列表	-14366
结交新朋友	-14367
美丽的景色	-14368
聊天机器人	-14369
自然资源的	-14370
苹果公司的	-14371
表达了自己	-14372
计划和目标	-14373
越来越受到	-14374
这个问题的	-14375
进一步提高	-14376
迪士尼乐园	-14377
都有不同的	-14378
重要的任务	-14379
量子计算机	-14380
风险和挑战	-14381
Sophie	-14382
divide	-14383
essary	-14384
essica	-14385
inking	-14386
itanic	-14387
lowing	-14388
movies	-14389
ources	-14390
rosoft	-14391
though	-14392
▁Grand	-14393
▁Jerry	-14394
▁aware	-14395
▁barks	-14396
▁beach	-14397
▁bring	-14398
▁climb	-14399
▁color	-14400
▁comes	-14401
▁elect	-14402
▁estás	-14403
▁films	-14404
▁franç	-14405
▁large	-14406
▁media	-14407
▁money	-14408
▁small	-14409
▁sorry	-14410
▁speed	-14411
▁still	-14412
▁treat	-14413
▁value	-14414
▁watch	-14415
▁下面是一篇	-14416
▁对以下句子	-14417
▁根据给出的	-14418
▁请描述一下	-14419
▁请给我推荐	-14420
▁针对给定的	-14421
中的所有单词	-14422
使其更加简洁	-14423
保护生态系统	-14424
健康的身体和	-14425
其中最著名的	-14426
减少化石燃料	-14427
减少对环境的	-14428
取得了巨大的	-14429
命名实体识别	-14430
对其进行排序	-14431
总部位于美国	-14432
意识到自己的	-14433
我们每个人都	-14434
我会认真考虑	-14435
我和我的家人	-14436
效率和准确性	-14437
文本进行分类	-14438
是一名年轻的	-14439
是一种常见的	-14440
是非常必要的	-14441
智慧城市建设	-14442
智能家居设备	-14443
生成一个与该	-14444
神经网络模型	-14445
维持身体健康	-14446
这可能会导致	-14447
这是一个非常	-14448
风险承受能力	-14449
Twitter	-14450
ability	-14451
jective	-14452
pportun	-14453
reverse	-14454
▁Amazon	-14455
▁French	-14456
▁Output	-14457
▁applic	-14458
▁bright	-14459
▁change	-14460
▁growth	-14461
▁having	-14462
▁others	-14463
▁planet	-14464
▁public	-14465
▁radius	-14466
▁remain	-14467
▁struct	-14468
▁根据以下描述	-14469
▁给定一个段落	-14470
人工智能对未来	-14471
做出自己的贡献	-14472
其中的语法错误	-14473
化石燃料的依赖	-14474
和自然语言处理	-14475
奥斯卡最佳影片	-14476
已经广泛应用于	-14477
快速的棕色狐狸	-14478
我无法提供实时	-14479
转换为小写字母	-14480
追求自己的梦想	-14481
预热好的烤箱中	-14482
▁Beatles	-14483
▁Despite	-14484
▁Michael	-14485
▁believe	-14486
▁capital	-14487
▁comment	-14488
▁dataset	-14489
▁healthy	-14490
▁meeting	-14491
▁present	-14492
▁reverse	-14493
▁shining	-14494
▁someone	-14495
▁suggest	-14496
▁给定一个电影的	-14497
利用人工智能技术	-14498
我是一个语言模型	-14499
摄入足够的蛋白质	-14500
自然语言处理模型	-14501
自然语言处理领域	-14502
echnology	-14503
▁Software	-14504
▁benefits	-14505
▁children	-14506
▁features	-14507
▁français	-14508
▁generate	-14509
▁products	-14510
▁我最喜欢的季节是	-14511
▁根据提供的关键词	-14512
减缓气候变化的影响	-14513
机器学习和深度学习	-14514
获奖最多的科幻小说	-14515
随着科技的不断发展	-14516
▁essential	-14517
▁translate	-14518
以下句子中的语法错误	-14519
▁difference	-14520
▁expression	-14521
▁healthcare	-14522
▁Translation	-14523
▁consectetur	-14524
人工智能在医疗领域的应用	-14525
敏捷的棕色狐狸跳过懒惰的狗	-14526
)`	-14527
,`	-14528
0]	-14529
1>	-14530
2-	-14531
3]	-14532
72	-14533
73	-14534
7]	-14535
9]	-14536
:{	-14537
:「	-14538
DC	-14539
IM	-14540
IY	-14541
Pa	-14542
Py	-14543
Su	-14544
['	-14545
[:	-14546
][	-14547
`。	-14548
aS	-14549
bc	-14550
iw	-14551
po	-14552
sa	-14553
sc	-14554
wh	-14555
ww	-14556
▁·	-14557
▁二	-14558
▁像	-14559
▁反	-14560
▁已	-14561
▁而	-14562
▁萨	-14563
、8	-14564
。」	-14565
一到	-14566
一幅	-14567
一环	-14568
一看	-14569
一词	-14570
不便	-14571
丛林	-14572
中年	-14573
中所	-14574
为何	-14575
主导	-14576
举重	-14577
之都	-14578
习俗	-14579
云朵	-14580
五大	-14581
五年	-14582
交给	-14583
亲近	-14584
亿个	-14585
仍有	-14586
从不	-14587
他说	-14588
件事	-14589
优劣	-14590
会有	-14591
伤口	-14592
伯格	-14593
低落	-14594
住房	-14595
佐料	-14596
你最	-14597
你看	-14598
依次	-14599
倍感	-14600
候选	-14601
借鉴	-14602
假日	-14603
做饭	-14604
光明	-14605
克拉	-14606
公益	-14607
兼容	-14608
内向	-14609
写着	-14610
军队	-14611
准时	-14612
击败	-14613
分开	-14614
分裂	-14615
切割	-14616
刘慈	-14617
前方	-14618
前端	-14619
前面	-14620
动员	-14621
助力	-14622
势力	-14623
占据	-14624
卫队	-14625
印第	-14626
厂商	-14627
厚度	-14628
发热	-14629
叔叔	-14630
变形	-14631
叙事	-14632
古诗	-14633
召开	-14634
吉姆	-14635
听着	-14636
周边	-14637
和他	-14638
哈拉	-14639
商量	-14640
四大	-14641
四年	-14642
四种	-14643
回去	-14644
国外	-14645
国籍	-14646
图和	-14647
土耳	-14648
在不	-14649
在他	-14650
地下	-14651
场上	-14652
场馆	-14653
坏了	-14654
堵塞	-14655
增肌	-14656
多么	-14657
多云	-14658
多地	-14659
天地	-14660
头肌	-14661
头部	-14662
奇迹	-14663
奥林	-14664
好玩	-14665
妹妹	-14666
姿态	-14667
子句	-14668
它由	-14669
守望	-14670
宜居	-14671
宝钗	-14672
宝马	-14673
家门	-14674
宽度	-14675
密室	-14676
寻梦	-14677
少数	-14678
山洞	-14679
峡谷	-14680
巫婆	-14681
巴马	-14682
帆船	-14683
帐户	-14684
带入	-14685
常用	-14686
并有	-14687
幻想	-14688
库和	-14689
开支	-14690
张华	-14691
录音	-14692
很不	-14693
很差	-14694
很忙	-14695
微小	-14696
心底	-14697
心肌	-14698
快活	-14699
恭喜	-14700
息息	-14701
恶化	-14702
悠闲	-14703
想看	-14704
意志	-14705
意面	-14706
懒散	-14707
成语	-14708
战士	-14709
房价	-14710
才是	-14711
打球	-14712
护士	-14713
抽取	-14714
拂面	-14715
拉面	-14716
拜访	-14717
拥挤	-14718
指引	-14719
捐赠	-14720
损坏	-14721
掉了	-14722
搜集	-14723
摇摆	-14724
摧毁	-14725
攀岩	-14726
攀爬	-14727
收件	-14728
放射	-14729
散发	-14730
数十	-14731
数码	-14732
日光	-14733
昂贵	-14734
明朝	-14735
明珠	-14736
是以	-14737
是无	-14738
是用	-14739
普罗	-14740
晶体	-14741
更低	-14742
最快	-14743
权衡	-14744
杰伦	-14745
构思	-14746
构造	-14747
枝上	-14748
架构	-14749
桃子	-14750
椅上	-14751
榜样	-14752
模具	-14753
次方	-14754
欢呼	-14755
油果	-14756
治理	-14757
洞穴	-14758
流水	-14759
海拔	-14760
海量	-14761
消融	-14762
深知	-14763
游玩	-14764
湛蓝	-14765
灵魂	-14766
炸酱	-14767
点缀	-14768
热心	-14769
热能	-14770
特长	-14771
犬和	-14772
独角	-14773
猎物	-14774
猪肉	-14775
王者	-14776
球迷	-14777
理智	-14778
瑞士	-14779
璀璨	-14780
生死	-14781
生病	-14782
生的	-14783
用电	-14784
用语	-14785
田径	-14786
电信	-14787
电竞	-14788
画画	-14789
略微	-14790
疗效	-14791
的心	-14792
的阶	-14793
监视	-14794
盒子	-14795
盖上	-14796
目光	-14797
相爱	-14798
看作	-14799
短小	-14800
短诗	-14801
碰撞	-14802
礼品	-14803
称赞	-14804
空中	-14805
等人	-14806
等差	-14807
精英	-14808
素养	-14809
纠纷	-14810
纸巾	-14811
纸条	-14812
终身	-14813
经纪	-14814
给她	-14815
统治	-14816
绩效	-14817
缤纷	-14818
而狗	-14819
职员	-14820
聚焦	-14821
聚餐	-14822
能为	-14823
脚步	-14824
脸上	-14825
自传	-14826
自助	-14827
节和	-14828
花儿	-14829
莱坞	-14830
莱特	-14831
菜名	-14832
营收	-14833
落下	-14834
著称	-14835
葱花	-14836
蒙古	-14837
薪酬	-14838
蝙蝠	-14839
褐色	-14840
观景	-14841
触摸	-14842
言论	-14843
警告	-14844
讨厌	-14845
论坛	-14846
论述	-14847
评测	-14848
诊所	-14849
话语	-14850
该国	-14851
说的	-14852
调优	-14853
账单	-14854
质地	-14855
贫穷	-14856
贵宾	-14857
赞扬	-14858
赞赏	-14859
起点	-14860
越高	-14861
跟进	-14862
跨国	-14863
身处	-14864
车祸	-14865
轨迹	-14866
辅导	-14867
辛苦	-14868
过上	-14869
过了	-14870
这就	-14871
这起	-14872
进去	-14873
进口	-14874
进来	-14875
远古	-14876
远足	-14877
迪拜	-14878
选用	-14879
通勤	-14880
遇难	-14881
那你	-14882
邮局	-14883
配送	-14884
酒精	-14885
金庸	-14886
金森	-14887
钻石	-14888
银翼	-14889
销量	-14890
阴谋	-14891
陆地	-14892
降水	-14893
院的	-14894
隐患	-14895
雅虎	-14896
雨中	-14897
青春	-14898
静静	-14899
非凡	-14900
音响	-14901
预先	-14902
预警	-14903
颈部	-14904
风速	-14905
飞往	-14906
飞鸟	-14907
饱满	-14908
首次	-14909
骨头	-14910
高大	-14911
高清	-14912
魔戒	-14913
鲜美	-14914
鲜花	-14915
黑衣	-14916
默默	-14917
)^2	-14918
+1]	-14919
,26	-14920
,27	-14921
,30	-14922
-10	-14923
-40	-14924
175	-14925
21,	-14926
345	-14927
678	-14928
=1,	-14929
ASA	-14930
Mar	-14931
Pro	-14932
SVM	-14933
Ser	-14934
ata	-14935
dig	-14936
eah	-14937
fel	-14938
ior	-14939
iwi	-14940
obe	-14941
oup	-14942
raw	-14943
ror	-14944
ued	-14945
ula	-14946
ule	-14947
urt	-14948
vas	-14949
vey	-14950
vin	-14951
{2}	-14952
ómo	-14953
▁",	-14954
▁''	-14955
▁('	-14956
▁26	-14957
▁54	-14958
▁</	-14959
▁AM	-14960
▁Ob	-14961
▁cm	-14962
▁cy	-14963
▁np	-14964
▁不断	-14965
▁书名	-14966
▁事件	-14967
▁什么	-14968
▁企业	-14969
▁倒入	-14970
▁健身	-14971
▁关系	-14972
▁前往	-14973
▁加强	-14974
▁合理	-14975
▁地球	-14976
▁培养	-14977
▁大蒜	-14978
▁如今	-14979
▁应为	-14980
▁所以	-14981
▁接受	-14982
▁提出	-14983
▁改进	-14984
▁新闻	-14985
▁橙子	-14986
▁沙拉	-14987
▁消极	-14988
▁牛肉	-14989
▁现代	-14990
▁电话	-14991
▁科学	-14992
▁简历	-14993
▁系统	-14994
▁股票	-14995
▁英国	-14996
▁获取	-14997
▁菜单	-14998
▁葡萄	-14999
▁解决	-15000
▁诗歌	-15001
▁诚挚	-15002
▁请从	-15003
▁请对	-15004
▁请求	-15005
▁购物	-15006
一份力	-15007
一只小	-15008
三部曲	-15009
不仅在	-15010
与技术	-15011
与现实	-15012
专业和	-15013
个行星	-15014
中提供	-15015
为企业	-15016
为城市	-15017
举行的	-15018
也使得	-15019
了一部	-15020
了他们	-15021
了关于	-15022
了解和	-15023
人类与	-15024
介绍性	-15025
从一个	-15026
从哪里	-15027
他一直	-15028
他总是	-15029
以上的	-15030
以促进	-15031
伏地魔	-15032
优惠券	-15033
但它的	-15034
但我的	-15035
但是你	-15036
但现在	-15037
但还是	-15038
体验和	-15039
作之一	-15040
你现在	-15041
你能否	-15042
使用时	-15043
使读者	-15044
例如在	-15045
停下来	-15046
停车场	-15047
全球的	-15048
公司和	-15049
关心和	-15050
其应用	-15051
准确和	-15052
划分为	-15053
列表的	-15054
刘慈欣	-15055
则认为	-15056
判断该	-15057
利用率	-15058
到达了	-15059
力量的	-15060
包括其	-15061
包括对	-15062
化妆品	-15063
医疗和	-15064
印度的	-15065
印第安	-15066
原材料	-15067
去上班	-15068
去哪里	-15069
去散步	-15070
参观了	-15071
及其对	-15072
发现的	-15073
可使用	-15074
可口的	-15075
听说过	-15076
吸烟和	-15077
和业务	-15078
和传统	-15079
和健身	-15080
和刺激	-15081
和动物	-15082
和压力	-15083
和呼吸	-15084
和在线	-15085
和地球	-15086
和坚果	-15087
和执行	-15088
和方法	-15089
和未来	-15090
和机会	-15091
和森林	-15092
和生理	-15093
和细节	-15094
和能力	-15095
和要求	-15096
和解决	-15097
和颜色	-15098
和食物	-15099
品尝到	-15100
哥特式	-15101
喜马拉	-15102
回家后	-15103
回报率	-15104
回收和	-15105
团队中	-15106
困难的	-15107
土耳其	-15108
在全球	-15109
在商业	-15110
在大学	-15111
在水中	-15112
在没有	-15113
填空题	-15114
增添了	-15115
复杂度	-15116
大学的	-15117
大小的	-15118
大迁徙	-15119
天行者	-15120
太平洋	-15121
女孩的	-15122
奶酪和	-15123
她认为	-15124
好主意	-15125
如何做	-15126
威胁到	-15127
威胁着	-15128
婚礼上	-15129
孤独和	-15130
学到了	-15131
学研究	-15132
宁静和	-15133
它利用	-15134
安静地	-15135
富有的	-15136
对你的	-15137
对整个	-15138
对现代	-15139
将披萨	-15140
将这个	-15141
尽我所	-15142
展开了	-15143
岛上的	-15144
工作或	-15145
工资单	-15146
差异化	-15147
已经很	-15148
年左右	-15149
年龄段	-15150
并加入	-15151
并成功	-15152
并探索	-15153
并注意	-15154
并自动	-15155
并记录	-15156
并重新	-15157
广告语	-15158
广泛而	-15159
建立起	-15160
强密码	-15161
强度的	-15162
彼此的	-15163
往往会	-15164
很好地	-15165
很美味	-15166
得分为	-15167
您能否	-15168
我不太	-15169
我同意	-15170
我真的	-15171
我要去	-15172
或消极	-15173
或直到	-15174
或网站	-15175
或者是	-15176
所在地	-15177
手机和	-15178
手机或	-15179
扮演着	-15180
抑郁等	-15181
披萨店	-15182
拥有了	-15183
挫折时	-15184
据报道	-15185
摄入的	-15186
撒哈拉	-15187
收入为	-15188
改写为	-15189
改变着	-15190
敏锐的	-15191
教育等	-15192
数列的	-15193
文化中	-15194
新加坡	-15195
新员工	-15196
新技能	-15197
新电影	-15198
方便和	-15199
方面都	-15200
无人机	-15201
时需要	-15202
星期二	-15203
星期日	-15204
星球上	-15205
是一年	-15206
是一组	-15207
是建立	-15208
更具有	-15209
更广泛	-15210
最常见	-15211
最近在	-15212
有意思	-15213
李经理	-15214
条件下	-15215
来增加	-15216
来学习	-15217
来这里	-15218
梦想的	-15219
检查和	-15220
植物的	-15221
正宗的	-15222
每一天	-15223
每一次	-15224
每小时	-15225
沉迷于	-15226
沙滩和	-15227
浪漫的	-15228
海浪声	-15229
温暖和	-15230
源代码	-15231
满足感	-15232
演员和	-15233
激发了	-15234
炎热的	-15235
炸酱面	-15236
烤蔬菜	-15237
热爱的	-15238
煮鸡蛋	-15239
煸炒至	-15240
爱情和	-15241
爱情片	-15242
牛油果	-15243
物品的	-15244
特朗普	-15245
狗喜欢	-15246
独角兽	-15247
猫和狗	-15248
王经理	-15249
理发师	-15250
理想的	-15251
瑜伽垫	-15252
瑜伽等	-15253
生成该	-15254
生物体	-15255
白皮书	-15256
的人类	-15257
的传播	-15258
的剧情	-15259
的名单	-15260
的命运	-15261
的地区	-15262
的女性	-15263
的宇宙	-15264
的完整	-15265
的平台	-15266
的必要	-15267
的思考	-15268
的探索	-15269
的提示	-15270
的新型	-15271
的日落	-15272
的概述	-15273
的温度	-15274
的策略	-15275
的范围	-15276
的营销	-15277
的行动	-15278
的表格	-15279
的要求	-15280
的词语	-15281
监督和	-15282
相关联	-15283
相对于	-15284
相遇并	-15285
相间的	-15286
积极性	-15287
等各种	-15288
等手段	-15289
等调料	-15290
红辣椒	-15291
经历和	-15292
经历过	-15293
结束了	-15294
给了他	-15295
编码器	-15296
美丽而	-15297
翻译的	-15298
肉类等	-15299
背景下	-15300
艾米丽	-15301
节目的	-15302
莫扎特	-15303
获得的	-15304
营养师	-15305
蒙马特	-15306
蘑菇和	-15307
表示会	-15308
被发现	-15309
规定的	-15310
角色和	-15311
解释性	-15312
计划书	-15313
词汇量	-15314
该产品	-15315
该日期	-15316
调味品	-15317
资金来	-15318
边长为	-15319
达成了	-15320
达芬奇	-15321
过去时	-15322
返回该	-15323
还支持	-15324
这个词	-15325
这幅画	-15326
这让我	-15327
连环画	-15328
选择了	-15329
透明的	-15330
通常有	-15331
遇到过	-15332
遗传学	-15333
遥远的	-15334
避免在	-15335
那个人	-15336
酒店的	-15337
采用更	-15338
重复性	-15339
问题是	-15340
隐私和	-15341
需要我	-15342
需要时	-15343
面包上	-15344
面包和	-15345
面包屑	-15346
预算和	-15347
食材的	-15348
首都是	-15349
高尔夫	-15350
(200	-15351
1500	-15352
2014	-15353
3000	-15354
Life	-15355
Matt	-15356
amus	-15357
cont	-15358
days	-15359
elin	-15360
esla	-15361
iPad	-15362
iner	-15363
ires	-15364
isor	-15365
iter	-15366
mail	-15367
rend	-15368
ster	-15369
uals	-15370
ummy	-15371
yles	-15372
▁0.6	-15373
▁14.	-15374
▁54,	-15375
▁70,	-15376
▁Can	-15377
▁Cat	-15378
▁Dan	-15379
▁Ell	-15380
▁Pre	-15381
▁ate	-15382
▁bed	-15383
▁cho	-15384
▁dem	-15385
▁dep	-15386
▁did	-15387
▁eas	-15388
▁ens	-15389
▁esp	-15390
▁exc	-15391
▁fit	-15392
▁hot	-15393
▁inn	-15394
▁log	-15395
▁nis	-15396
▁nov	-15397
▁off	-15398
▁phr	-15399
▁pop	-15400
▁pré	-15401
▁rel	-15402
▁你认为	-15403
▁在过去	-15404
▁将面团	-15405
▁您可以	-15406
▁您需要	-15407
▁我希望	-15408
▁我知道	-15409
▁早上好	-15410
▁最新的	-15411
▁服务员	-15412
▁未来的	-15413
▁李老板	-15414
▁没问题	-15415
▁第二个	-15416
▁计算机	-15417
一个关于	-15418
一个单词	-15419
一个小时	-15420
一个数字	-15421
一个重要	-15422
不仅如此	-15423
不断探索	-15424
不要放弃	-15425
专业术语	-15426
两篇文章	-15427
严格遵守	-15428
中扮演着	-15429
中的一种	-15430
为了实现	-15431
主要演员	-15432
也有助于	-15433
了他们的	-15434
产生影响	-15435
享受这个	-15436
人物之一	-15437
人际交往	-15438
亿美元的	-15439
仍然存在	-15440
他们最终	-15441
他们认为	-15442
他是一位	-15443
代表作品	-15444
令人难忘	-15445
以及一个	-15446
以及他们	-15447
任何东西	-15448
但是他的	-15449
体育运动	-15450
你最喜欢	-15451
你有兴趣	-15452
你的帮助	-15453
你的建议	-15454
你的目标	-15455
例如使用	-15456
保护用户	-15457
保持乐观	-15458
修正建议	-15459
倒入锅中	-15460
值得一游	-15461
做了一些	-15462
做得很好	-15463
公交车上	-15464
公共场所	-15465
公共安全	-15466
公司最近	-15467
其中每个	-15468
出现问题	-15469
分享一些	-15470
分类问题	-15471
分钟左右	-15472
创造性和	-15473
创造新的	-15474
删除所有	-15475
制作一杯	-15476
办公室里	-15477
包括数据	-15478
华为打车	-15479
卫生组织	-15480
历史古迹	-15481
参考文献	-15482
及时发现	-15483
只有这样	-15484
可以享受	-15485
可以大大	-15486
可以快速	-15487
可以执行	-15488
可以直接	-15489
可以获得	-15490
可以让您	-15491
可以预测	-15492
可能会被	-15493
同时也是	-15494
和上下文	-15495
和幸福感	-15496
和机器人	-15497
和满足感	-15498
和独特的	-15499
品牌价值	-15500
哪些问题	-15501
喜马拉雅	-15502
围绕太阳	-15503
图像分类	-15504
在文章中	-15505
在海滩上	-15506
在空气中	-15507
在阳光下	-15508
增加一些	-15509
处理器和	-15510
备受瞩目	-15511
多方面的	-15512
大学毕业	-15513
天空中的	-15514
存在一些	-15515
孟加拉虎	-15516
学习一门	-15517
学习英语	-15518
学士学位	-15519
学校应该	-15520
它是一部	-15521
安全措施	-15522
安全模式	-15523
实现成功	-15524
对人类的	-15525
对给定的	-15526
就业市场	-15527
尽情享受	-15528
尽我所能	-15529
屏幕尺寸	-15530
工业化和	-15531
工作区域	-15532
市场分析	-15533
带给我们	-15534
帮助学生	-15535
平均寿命	-15536
并不总是	-15537
并且可以	-15538
应对能力	-15539
建筑风格	-15540
建议使用	-15541
必须包含	-15542
恶意软件	-15543
您有什么	-15544
您的名字	-15545
您的家庭	-15546
情感极性	-15547
意见领袖	-15548
我们发现	-15549
我们现在	-15550
我的设计	-15551
我真的很	-15552
我遇到了	-15553
战略计划	-15554
所有人都	-15555
手机成瘾	-15556
手里拿着	-15557
才能获得	-15558
打电话给	-15559
技术支持	-15560
拥有超过	-15561
提供答案	-15562
搜索结果	-15563
放松技巧	-15564
放松身体	-15565
数字世界	-15566
数学公式	-15567
文字内容	-15568
新的一天	-15569
方法之一	-15570
旅游体验	-15571
无论你是	-15572
时代广场	-15573
明天早上	-15574
是一种由	-15575
是否正确	-15576
是否适合	-15577
是怎样的	-15578
是许多人	-15579
智能健康	-15580
智能医疗	-15581
智能合约	-15582
更加便捷	-15583
更加健康	-15584
更加容易	-15585
更深入地	-15586
更深层次	-15587
更高效地	-15588
有多少个	-15589
服务水平	-15590
某个地方	-15591
欣赏美景	-15592
正在考虑	-15593
步骤如下	-15594
每一个人	-15595
每周进行	-15596
没有得到	-15597
法国巴黎	-15598
温度升高	-15599
游戏开发	-15600
演员表演	-15601
火场风险	-15602
特征选择	-15603
特殊字符	-15604
特点包括	-15605
环境中的	-15606
用自己的	-15607
电子表格	-15608
电影列表	-15609
电影评分	-15610
的人交流	-15611
的企业家	-15612
的关键是	-15613
的数量和	-15614
的新产品	-15615
的时间内	-15616
的标志性	-15617
相关数据	-15618
知识产权	-15619
社交活动	-15620
种植蔬菜	-15621
科技文章	-15622
科普文章	-15623
移动设备	-15624
稳定性和	-15625
穿着一件	-15626
第二季度	-15627
等差数列	-15628
简要描述	-15629
经过一番	-15630
编辑任务	-15631
网络购物	-15632
职业道德	-15633
能够快速	-15634
能够提高	-15635
能够满足	-15636
自主学习	-15637
自我管理	-15638
自然风景	-15639
英语短语	-15640
英语语法	-15641
表达我对	-15642
许多人的	-15643
该数据集	-15644
语音控制	-15645
谓语动词	-15646
负面情绪	-15647
财务状况	-15648
财务管理	-15649
购买历史	-15650
身体活动	-15651
辅助诊断	-15652
输出其中	-15653
还有什么	-15654
这一趋势	-15655
这个想法	-15656
这个电影	-15657
这份工作	-15658
这是一本	-15659
进行润色	-15660
适应新的	-15661
适当调整	-15662
适量运动	-15663
逐渐增加	-15664
重要贡献	-15665
金融领域	-15666
银翼杀手	-15667
阅读书籍	-15668
需要包含	-15669
需要明确	-15670
需要更多	-15671
需要知道	-15672
需要花费	-15673
非常美味	-15674
食品安全	-15675
饮食均衡	-15676
,2019	-15677
-2020	-15678
Where	-15679
acher	-15680
apien	-15681
artin	-15682
atory	-15683
atter	-15684
ecial	-15685
ember	-15686
ineer	-15687
inted	-15688
ipisc	-15689
isapp	-15690
lanet	-15691
livia	-15692
merce	-15693
ories	-15694
quick	-15695
▁Bill	-15696
▁Here	-15697
▁NASA	-15698
▁True	-15699
▁Zepp	-15700
▁alle	-15701
▁amis	-15702
▁body	-15703
▁bott	-15704
▁city	-15705
▁film	-15706
▁foot	-15707
▁happ	-15708
▁head	-15709
▁hear	-15710
▁jour	-15711
▁land	-15712
▁mean	-15713
▁next	-15714
▁resp	-15715
▁rest	-15716
▁side	-15717
▁stay	-15718
▁summ	-15719
▁warm	-15720
▁一段文本	-15721
▁个人信息	-15722
▁交通方式	-15723
▁准备材料	-15724
▁出版日期	-15725
▁分类一组	-15726
▁均衡饮食	-15727
▁总体而言	-15728
▁我们需要	-15729
▁我很抱歉	-15730
▁智能手表	-15731
▁根据下列	-15732
▁生成一条	-15733
▁电影简介	-15734
▁电话号码	-15735
▁给出五个	-15736
▁给我五个	-15737
▁苹果公司	-15738
▁解决方案	-15739
▁请为以下	-15740
▁餐厅名称	-15741
一段文本中	-15742
一组给定的	-15743
下面是一些	-15744
不同的类别	-15745
两种不同的	-15746
中文翻译是	-15747
也在不断地	-15748
了很长时间	-15749
人类社会的	-15750
你可以使用	-15751
你可以选择	-15752
保持健康和	-15753
健康的早餐	-15754
共同的家园	-15755
其中最大的	-15756
冬季奥运会	-15757
列表中所有	-15758
创立了一家	-15759
删除其中的	-15760
历史悠久的	-15761
可以让人们	-15762
可以降低患	-15763
可持续农业	-15764
可能会增加	-15765
和数据分析	-15766
和未来发展	-15767
和解决方案	-15768
国际空间站	-15769
在当今社会	-15770
坚定的信念	-15771
坚持不懈地	-15772
埃及金字塔	-15773
复杂的任务	-15774
复杂的问题	-15775
大大提高了	-15776
学习和改进	-15777
学习新事物	-15778
学生之间的	-15779
它可以帮助	-15780
寒冷的冬天	-15781
对于我们的	-15782
对人类社会	-15783
对文本进行	-15784
寻梦环游记	-15785
展示了他的	-15786
工具和技术	-15787
已成为全球	-15788
带来的影响	-15789
并不是一件	-15790
建议您查看	-15791
开始自己的	-15792
引人注目的	-15793
德国牧羊犬	-15794
心血管疾病	-15795
悠久的历史	-15796
意义和价值	-15797
意识到自己	-15798
我们一起去	-15799
我强烈推荐	-15800
我很感兴趣	-15801
我无法生成	-15802
或电视节目	-15803
按升序排序	-15804
挑战和问题	-15805
提供的文本	-15806
提取其中的	-15807
提高他们的	-15808
提高效率和	-15809
数据分析师	-15810
数据和信息	-15811
数据的分析	-15812
新能源汽车	-15813
是一个充满	-15814
最大程度地	-15815
没有明显的	-15816
浓厚的兴趣	-15817
特定单词的	-15818
生产过程中	-15819
生存和发展	-15820
生活在一个	-15821
番茄工作法	-15822
的人工智能	-15823
的工作效率	-15824
的步骤如下	-15825
社会和经济	-15826
等各个领域	-15827
简单的句子	-15828
算法和技术	-15829
自己感兴趣	-15830
自己的职业	-15831
蛋白质来源	-15832
许多人认为	-15833
这个产品的	-15834
这可以帮助	-15835
进一步发展	-15836
追求自己的	-15837
适当的运动	-15838
遇到了一个	-15839
非常有帮助	-15840
面对面交流	-15841
Fluffy	-15842
airway	-15843
aurant	-15844
etimes	-15845
illiam	-15846
imming	-15847
indows	-15848
itable	-15849
lement	-15850
urther	-15851
▁*****	-15852
▁Linda	-15853
▁Sorry	-15854
▁Space	-15855
▁accur	-15856
▁begin	-15857
▁colle	-15858
▁heard	-15859
▁hours	-15860
▁ipsum	-15861
▁labor	-15862
▁langu	-15863
▁parag	-15864
▁power	-15865
▁sever	-15866
▁state	-15867
▁tasks	-15868
▁techn	-15869
▁velit	-15870
▁今天的天气	-15871
▁使用给定的	-15872
▁将下列句子	-15873
▁我非常喜欢	-15874
▁根据下面的	-15875
▁请为我推荐	-15876
▁请生成一段	-15877
万有引力定律	-15878
下列句子中的	-15879
为我们的生活	-15880
主题和关键词	-15881
从数据中学习	-15882
令人印象深刻	-15883
使用智能手机	-15884
修改后的文本	-15885
健身应用程序	-15886
列表进行排序	-15887
史上最伟大的	-15888
品尝当地美食	-15889
团队合作精神	-15890
在这个对话中	-15891
字的新闻报道	-15892
字符串转换为	-15893
对我们公司的	-15894
市场营销经理	-15895
布恩迪亚家族	-15896
情感分析结果	-15897
我们可以选择	-15898
我们的生活中	-15899
我喜欢看电影	-15900
找到了自己的	-15901
撰写一篇关于	-15902
文本进行摘要	-15903
是一个美丽的	-15904
是一位著名的	-15905
是法国的首都	-15906
更好地理解和	-15907
用户体验设计	-15908
用户可以通过	-15909
等方面的工作	-15910
计算它们之间	-15911
计算机科学的	-15912
讲述了主人公	-15913
造成负面影响	-15914
Michael	-15915
Netflix	-15916
rection	-15917
replace	-15918
reviews	-15919
|------	-15920
▁Amanda	-15921
▁Bridge	-15922
▁George	-15923
▁Olivia	-15924
▁Source	-15925
▁States	-15926
▁System	-15927
▁United	-15928
▁adults	-15929
▁cherry	-15930
▁custom	-15931
▁diffic	-15932
▁disapp	-15933
▁expect	-15934
▁family	-15935
▁humans	-15936
▁libero	-15937
▁lifest	-15938
▁making	-15939
▁played	-15940
▁proble	-15941
▁promot	-15942
▁season	-15943
▁人工智能技术	-15944
▁今天天气真好	-15945
▁提供一篇文章	-15946
▁根据以下提示	-15947
▁根据以下条件	-15948
▁生成一首关于	-15949
▁给出一段文字	-15950
使其更具可读性	-15951
使其更加流畅和	-15952
健康的生活习惯	-15953
历史可以追溯到	-15954
取代人类的工作	-15955
对模型进行评估	-15956
将其中的错别字	-15957
已经成为了我们	-15958
开放式生成任务	-15959
我们的日常生活	-15960
找出它们之间的	-15961
数和最小公倍数	-15962
最受欢迎的电影	-15963
最喜欢的电影是	-15964
机器学习的应用	-15965
流行歌曲的歌词	-15966
生成一个简短的	-15967
著名的旅游景点	-15968
诊断和治疗疾病	-15969
这家餐厅的食物	-15970
这篇文章介绍了	-15971
隐私和安全问题	-15972
需要更多的信息	-15973
commerce	-15974
ipiscing	-15975
▁achieve	-15976
▁complet	-15977
▁context	-15978
▁decided	-15979
▁effects	-15980
▁flowers	-15981
▁forward	-15982
▁getting	-15983
▁grammar	-15984
▁patient	-15985
▁quality	-15986
▁running	-15987
▁sklearn	-15988
▁started	-15989
一位年轻的程序员	-15990
个随机整数的列表	-15991
极端天气事件增加	-15992
生成一篇新闻报道	-15993
评分从高到低排序	-15994
越来越多的人选择	-15995
ictionary	-15996
▁Zeppelin	-15997
▁elephant	-15998
▁everyone	-15999
▁internet	-16000
▁negative	-16001
▁opportun	-16002
▁robotics	-16003
▁software	-16004
▁studying	-16005
▁根据输入的关键词	-16006
▁给出一段英文文本	-16007
▁给我推荐一些适合	-16008
人们生活水平的提高	-16009
人工智能技术的应用	-16010
快速的棕色狐狸跳过	-16011
▁Yesterday	-16012
▁contribut	-16013
▁transform	-16014
▁根据给定的文本内容	-16015
人工智能可以帮助医生	-16016
发挥越来越重要的作用	-16017
改变了我们的生活方式	-16018
▁JavaScript	-16019
▁adipiscing	-16020
▁consisting	-16021
"(	-16022
%)	-16023
,9	-16024
-6	-16025
/(	-16026
/0	-16027
6+	-16028
8)	-16029
:/	-16030
=2	-16031
=3	-16032
AB	-16033
AT	-16034
DO	-16035
MM	-16036
OL	-16037
OP	-16038
PI	-16039
RE	-16040
RO	-16041
VR	-16042
fl	-16043
of	-16044
oz	-16045
ré	-16046
yr	-16047
||	-16048
▁买	-16049
▁切	-16050
▁取	-16051
▁嘿	-16052
▁就	-16053
▁打	-16054
▁毛	-16055
▁汉	-16056
▁清	-16057
▁紫	-16058
▁里	-16059
▁长	-16060
▁雨	-16061
。\	-16062
一串	-16063
一口	-16064
一批	-16065
一谈	-16066
一阵	-16067
万圣	-16068
三峡	-16069
三餐	-16070
上角	-16071
下个	-16072
下单	-16073
不久	-16074
不定	-16075
不禁	-16076
不移	-16077
不被	-16078
专员	-16079
两天	-16080
两家	-16081
两条	-16082
两类	-16083
两面	-16084
个子	-16085
中小	-16086
中断	-16087
临时	-16088
为人	-16089
久了	-16090
之涣	-16091
之谜	-16092
乏味	-16093
也被	-16094
二手	-16095
二的	-16096
云层	-16097
交际	-16098
京都	-16099
亲人	-16100
人文	-16101
人脉	-16102
今后	-16103
从业	-16104
从句	-16105
价比	-16106
众数	-16107
会面	-16108
传来	-16109
传球	-16110
低脂	-16111
作战	-16112
你都	-16113
佳作	-16114
侵权	-16115
侵犯	-16116
俚语	-16117
保暖	-16118
信人	-16119
信件	-16120
信誉	-16121
倒在	-16122
倾诉	-16123
偏远	-16124
先前	-16125
先去	-16126
共度	-16127
关门	-16128
其对	-16129
兽医	-16130
冗余	-16131
冰雪	-16132
减震	-16133
几周	-16134
前置	-16135
加薪	-16136
化等	-16137
化肥	-16138
匹克	-16139
千年	-16140
千米	-16141
午夜	-16142
协会	-16143
单次	-16144
印尼	-16145
历经	-16146
厉害	-16147
原子	-16148
去世	-16149
去的	-16150
去过	-16151
反义	-16152
受访	-16153
变软	-16154
口头	-16155
口红	-16156
口音	-16157
古堡	-16158
只狗	-16159
台风	-16160
各方	-16161
各有	-16162
同理	-16163
同道	-16164
后为	-16165
告别	-16166
员会	-16167
周四	-16168
味蕾	-16169
和氦	-16170
咒语	-16171
哪儿	-16172
商机	-16173
商界	-16174
四周	-16175
回了	-16176
团体	-16177
图标	-16178
图表	-16179
在一	-16180
在海	-16181
地向	-16182
地道	-16183
坚强	-16184
基地	-16185
墨镜	-16186
外卖	-16187
外表	-16188
大力	-16189
大虾	-16190
天才	-16191
太坊	-16192
太狼	-16193
夹克	-16194
奠定	-16195
女王	-16196
姐姐	-16197
子树	-16198
它会	-16199
它来	-16200
安宁	-16201
室外	-16202
密集	-16203
富士	-16204
富豪	-16205
对照	-16206
导入	-16207
将使	-16208
将被	-16209
尊严	-16210
小玉	-16211
小芸	-16212
少吃	-16213
尔达	-16214
居里	-16215
山上	-16216
巨额	-16217
巨龙	-16218
巴克	-16219
布丁	-16220
带你	-16221
幻灯	-16222
广播	-16223
床前	-16224
底蕴	-16225
店员	-16226
庞大	-16227
废品	-16228
开阔	-16229
张伟	-16230
弯举	-16231
弱点	-16232
归属	-16233
形势	-16234
很强	-16235
得益	-16236
得知	-16237
微博	-16238
微观	-16239
忍受	-16240
忽然	-16241
总共	-16242
恐慌	-16243
惩罚	-16244
想念	-16245
想着	-16246
愚蠢	-16247
懂得	-16248
我家	-16249
我就	-16250
截至	-16251
房产	-16252
才智	-16253
扎实	-16254
打了	-16255
扼要	-16256
技艺	-16257
折叠	-16258
护照	-16259
押韵	-16260
拉斯	-16261
拳手	-16262
持久	-16263
指的	-16264
挣扎	-16265
挫败	-16266
捕捞	-16267
授权	-16268
接听	-16269
推导	-16270
握住	-16271
摄取	-16272
摇曳	-16273
擀面	-16274
改革	-16275
放下	-16276
放心	-16277
故乡	-16278
故障	-16279
文的	-16280
斯卡	-16281
斯图	-16282
斯科	-16283
斯顿	-16284
新人	-16285
新款	-16286
新生	-16287
新颖	-16288
方图	-16289
施肥	-16290
无声	-16291
时会	-16292
时常	-16293
星空	-16294
是你	-16295
晋升	-16296
晚宴	-16297
晨曦	-16298
暖气	-16299
月的	-16300
月饼	-16301
有个	-16302
望远	-16303
朝着	-16304
期末	-16305
末尾	-16306
条理	-16307
杭州	-16308
杯水	-16309
枝头	-16310
柑橘	-16311
样例	-16312
椭圆	-16313
樱花	-16314
歌单	-16315
歌唱	-16316
武侠	-16317
歧视	-16318
残疾	-16319
毫升	-16320
毫无	-16321
水瓶	-16322
汇总	-16323
沃斯	-16324
沉思	-16325
沉默	-16326
沙沙	-16327
沥干	-16328
油脂	-16329
洋溢	-16330
洗脸	-16331
流逝	-16332
润滑	-16333
液体	-16334
深层	-16335
深沉	-16336
深色	-16337
温泉	-16338
渲染	-16339
滋润	-16340
漂浮	-16341
点点	-16342
烧开	-16343
煎饼	-16344
照亮	-16345
照射	-16346
煮至	-16347
煸炒	-16348
爱护	-16349
物资	-16350
犬式	-16351
狩猎	-16352
现今	-16353
球场	-16354
琼斯	-16355
电能	-16356
画廊	-16357
略高	-16358
登陆	-16359
的花	-16360
看的	-16361
真挚	-16362
空闲	-16363
窃取	-16364
等候	-16365
糖浆	-16366
系数	-16367
紊乱	-16368
繁华	-16369
纠错	-16370
红十	-16371
续集	-16372
维度	-16373
罗兰	-16374
群组	-16375
者们	-16376
而另	-16377
联络	-16378
肠道	-16379
肤色	-16380
肺癌	-16381
能和	-16382
脖子	-16383
脚尖	-16384
脱水	-16385
脱颖	-16386
腺癌	-16387
自贸	-16388
舒畅	-16389
船只	-16390
良心	-16391
色拉	-16392
苏菲	-16393
荒野	-16394
葱段	-16395
薄饼	-16396
衣柜	-16397
被公	-16398
被盗	-16399
裁判	-16400
要么	-16401
规格	-16402
角膜	-16403
解为	-16404
解救	-16405
解码	-16406
警官	-16407
警觉	-16408
认同	-16409
让她	-16410
设想	-16411
证人	-16412
误差	-16413
诱惑	-16414
课外	-16415
谈话	-16416
谜团	-16417
负向	-16418
贫困	-16419
赋予	-16420
起始	-16421
趣闻	-16422
跑去	-16423
踏上	-16424
迅猛	-16425
过山	-16426
过期	-16427
过长	-16428
这本	-16429
进球	-16430
迷茫	-16431
退出	-16432
退换	-16433
送上	-16434
逆境	-16435
选出	-16436
透露	-16437
逝世	-16438
遇见	-16439
道菜	-16440
那种	-16441
邮轮	-16442
配色	-16443
酒杯	-16444
里亚	-16445
里拉	-16446
重构	-16447
重的	-16448
野猫	-16449
野营	-16450
错的	-16451
镜子	-16452
长途	-16453
闪灵	-16454
闭上	-16455
防守	-16456
防御	-16457
防护	-16458
降序	-16459
难点	-16460
霍金	-16461
静夜	-16462
顺畅	-16463
领略	-16464
颈椎	-16465
额外	-16466
飘落	-16467
飞翔	-16468
飞舞	-16469
食性	-16470
食欲	-16471
餐桌	-16472
饱腹	-16473
高中	-16474
高昂	-16475
魔王	-16476
鸟语	-16477
鸟鸣	-16478
黛玉	-16479
龙头	-16480
龙虾	-16481
)、《	-16482
,28	-16483
.5。	-16484
17,	-16485
20。	-16486
30,	-16487
456	-16488
56,	-16489
:60	-16490
;2)	-16491
;3)	-16492
All	-16493
BMI	-16494
DIY	-16495
Int	-16496
NaN	-16497
ORL	-16498
One	-16499
SEO	-16500
SPF	-16501
SUV	-16502
Sun	-16503
[0,	-16504
adl	-16505
ado	-16506
agn	-16507
ama	-16508
asc	-16509
beg	-16510
fib	-16511
ged	-16512
hel	-16513
ied	-16514
jor	-16515
len	-16516
max	-16517
png	-16518
pri	-16519
toE	-16520
uby	-16521
uis	-16522
upp	-16523
urs	-16524
ves	-16525
▁(5	-16526
▁48	-16527
▁56	-16528
▁7]	-16529
▁=>	-16530
▁Da	-16531
▁El	-16532
▁Gr	-16533
▁Ph	-16534
▁TO	-16535
▁Tr	-16536
▁im	-16537
▁pm	-16538
▁一种	-16539
▁不用	-16540
▁不过	-16541
▁世界	-16542
▁中文	-16543
▁乔治	-16544
▁他在	-16545
▁全球	-16546
▁勇敢	-16547
▁参观	-16548
▁发布	-16549
▁地震	-16550
▁夏季	-16551
▁外貌	-16552
▁大象	-16553
▁布鲁	-16554
▁开头	-16555
▁当你	-16556
▁微风	-16557
▁快速	-16558
▁性格	-16559
▁我有	-16560
▁排序	-16561
▁晚上	-16562
▁有氧	-16563
▁森林	-16564
▁正向	-16565
▁比较	-16566
▁狗的	-16567
▁甜点	-16568
▁相关	-16569
▁红酒	-16570
▁老板	-16571
▁老王	-16572
▁老虎	-16573
▁自动	-16574
▁补全	-16575
▁西瓜	-16576
▁观察	-16577
▁调整	-16578
▁近日	-16579
▁这项	-16580
▁连接	-16581
▁那个	-16582
▁长城	-16583
▁阳光	-16584
▁面对	-16585
▁饮料	-16586
▁麦克	-16587
。19	-16588
。”"	-16589
一会儿	-16590
一年的	-16591
一方面	-16592
万圣节	-16593
上发布	-16594
下一代	-16595
下一场	-16596
不太好	-16597
不良的	-16598
不过我	-16599
不重复	-16600
与不同	-16601
与应用	-16602
与挑战	-16603
与社会	-16604
与给定	-16605
世纪的	-16606
个整数	-16607
中进行	-16608
中餐馆	-16609
为主要	-16610
主要是	-16611
主语和	-16612
之前的	-16613
乘积为	-16614
也包括	-16615
也就是	-16616
也让我	-16617
习惯和	-16618
了一篇	-16619
了一致	-16620
五星级	-16621
交通和	-16622
人们会	-16623
人体的	-16624
人死亡	-16625
什么样	-16626
他们都	-16627
他每天	-16628
代表了	-16629
代谢率	-16630
以至于	-16631
件事情	-16632
众多的	-16633
会发生	-16634
但同时	-16635
但我想	-16636
位置为	-16637
体重和	-16638
作曲家	-16639
作者和	-16640
你对于	-16641
你这样	-16642
使用和	-16643
全方位	-16644
全面的	-16645
公园和	-16646
关注度	-16647
关键点	-16648
兴奋和	-16649
其优点	-16650
写一封	-16651
写作和	-16652
冥想或	-16653
准备和	-16654
分心和	-16655
分解成	-16656
分钟后	-16657
判断其	-16658
制度和	-16659
动人的	-16660
动物城	-16661
包括了	-16662
医生的	-16663
南美洲	-16664
历史的	-16665
去尝试	-16666
去年的	-16667
去海滩	-16668
去海边	-16669
友好型	-16670
发挥了	-16671
受访者	-16672
可用的	-16673
吃晚餐	-16674
同道合	-16675
周杰伦	-16676
和不同	-16677
和互动	-16678
和传播	-16679
和商家	-16680
和成功	-16681
和文本	-16682
和日期	-16683
和树木	-16684
和番茄	-16685
和编辑	-16686
和艺术	-16687
和讨论	-16688
和趋势	-16689
和预算	-16690
和风格	-16691
和饮食	-16692
咖啡的	-16693
品尝了	-16694
哲学家	-16695
喜欢它	-16696
回家了	-16697
因此在	-16698
圣彼得	-16699
在一些	-16700
在人类	-16701
在北京	-16702
在夏天	-16703
在学习	-16704
在寻找	-16705
在这些	-16706
地图或	-16707
处理好	-16708
外太空	-16709
多因素	-16710
大爆炸	-16711
大碗中	-16712
大革命	-16713
天气很	-16714
好成绩	-16715
好电影	-16716
如冲浪	-16717
如医疗	-16718
如跑步	-16719
委员会	-16720
字以上	-16721
学习书	-16722
学习率	-16723
它正在	-16724
宜人的	-16725
实践的	-16726
实际的	-16727
对他的	-16728
对地球	-16729
对身体	-16730
小小的	-16731
小技巧	-16732
小明向	-16733
小猫在	-16734
小行星	-16735
小镇上	-16736
少年的	-16737
就像一	-16738
层次感	-16739
居住地	-16740
岛屿上	-16741
帮助他	-16742
帮助吗	-16743
常态化	-16744
平台的	-16745
平均分	-16746
平底锅	-16747
并准备	-16748
并增强	-16749
并学会	-16750
并控制	-16751
并改正	-16752
并继续	-16753
并计划	-16754
并选择	-16755
幸福的	-16756
幻灯片	-16757
建立更	-16758
建筑师	-16759
开放和	-16760
张老师	-16761
很漂亮	-16762
微生物	-16763
心灵的	-16764
必需的	-16765
忘记了	-16766
忙碌的	-16767
性价比	-16768
总动员	-16769
您想要	-16770
您提供	-16771
情感的	-16772
想了解	-16773
我参加	-16774
我只能	-16775
我常常	-16776
我应该	-16777
我开始	-16778
或工作	-16779
或故事	-16780
或段落	-16781
投资的	-16782
拍打着	-16783
指出了	-16784
控制器	-16785
推出的	-16786
提出的	-16787
摇滚乐	-16788
攻击者	-16789
数学家	-16790
数据来	-16791
新单词	-16792
新句子	-16793
新市场	-16794
方式是	-16795
旅行时	-16796
日光浴	-16797
日期是	-16798
明亮的	-16799
星期一	-16800
星期三	-16801
是一份	-16802
是一次	-16803
是一门	-16804
是人们	-16805
是值得	-16806
是否能	-16807
是指由	-16808
是提高	-16809
更详细	-16810
有信心	-16811
有多个	-16812
有多大	-16813
有限的	-16814
服务于	-16815
望远镜	-16816
期望的	-16817
本周五	-16818
机构名	-16819
李先生	-16820
检测和	-16821
欢快地	-16822
正在为	-16823
氢和氦	-16824
汉克斯	-16825
沮丧和	-16826
沸水中	-16827
注意的	-16828
洪水等	-16829
流媒体	-16830
浓郁的	-16831
海姆斯	-16832
清晰地	-16833
清洁剂	-16834
清洁的	-16835
渐渐地	-16836
渗透到	-16837
潜力和	-16838
灰太狼	-16839
烤箱至	-16840
烤鸡肉	-16841
然后去	-16842
犯错误	-16843
独一无	-16844
珊瑚礁	-16845
瑜伽或	-16846
生物和	-16847
用中火	-16848
由多个	-16849
电脑和	-16850
病风险	-16851
的一场	-16852
的一大	-16853
的一家	-16854
的事件	-16855
的五个	-16856
的交通	-16857
的人际	-16858
的企业	-16859
的努力	-16860
的奇幻	-16861
的宠物	-16862
的建立	-16863
的形象	-16864
的总和	-16865
的情绪	-16866
的意见	-16867
的成本	-16868
的担忧	-16869
的提高	-16870
的方向	-16871
的时代	-16872
的景色	-16873
的森林	-16874
的植物	-16875
的水果	-16876
的版本	-16877
的理想	-16878
的男子	-16879
的画面	-16880
的破坏	-16881
的网络	-16882
的翻译	-16883
的联系	-16884
的自由	-16885
的起源	-16886
的软件	-16887
的输入	-16888
的追求	-16889
的长期	-16890
的阶乘	-16891
目击者	-16892
目前的	-16893
直方图	-16894
相关性	-16895
看到的	-16896
眼保健	-16897
眼睛和	-16898
瞩目的	-16899
破坏了	-16900
祈使句	-16901
福利院	-16902
程度和	-16903
程度的	-16904
空白处	-16905
竞争和	-16906
第一部	-16907
等措施	-16908
等特点	-16909
等蔬菜	-16910
等食物	-16911
精力和	-16912
系统等	-16913
红烧肉	-16914
纪念日	-16915
纽约的	-16916
经理人	-16917
经验来	-16918
编辑和	-16919
网站的	-16920
羊肉串	-16921
群体中	-16922
老农民	-16923
者之一	-16924
而言之	-16925
耐药性	-16926
联系我	-16927
肖申克	-16928
背后的	-16929
自主地	-16930
自尊心	-16931
自由的	-16932
舒适区	-16933
英寸版	-16934
英格兰	-16935
获得过	-16936
菜单项	-16937
行动来	-16938
西游记	-16939
要确保	-16940
计数器	-16941
计算器	-16942
让身体	-16943
设备的	-16944
设计的	-16945
访问或	-16946
证明了	-16947
词汇的	-16948
该函数	-16949
该技术	-16950
该段落	-16951
谈一谈	-16952
超参数	-16953
超市买	-16954
路由器	-16955
踢足球	-16956
轻松的	-16957
迈克尔	-16958
还是在	-16959
还有些	-16960
这三个	-16961
这是个	-16962
这让他	-16963
进步的	-16964
透明度	-16965
通过在	-16966
邀请您	-16967
邪恶的	-16968
都喜欢	-16969
配备了	-16970
里面有	-16971
重复项	-16972
钢铁侠	-16973
错误和	-16974
门大桥	-16975
非常高	-16976
面包店	-16977
面团上	-16978
音乐节	-16979
领导力	-16980
食品和	-16981
食物和	-16982
高性能	-16983
高糖分	-16984
黑衣人	-16985
(100	-16986
100,	-16987
6,8,	-16988
:-1]	-16989
:[1,	-16990
Elon	-16991
Emma	-16992
Flow	-16993
ORLD	-16994
acec	-16995
acob	-16996
ails	-16997
ardo	-16998
arry	-16999
bble	-17000
bert	-17001
case	-17002
ched	-17003
cope	-17004
eger	-17005
eler	-17006
fort	-17007
iPod	-17008
iece	-17009
ille	-17010
info	-17011
ival	-17012
ixel	-17013
lows	-17014
ocol	-17015
orch	-17016
ores	-17017
orts	-17018
oses	-17019
otta	-17020
oven	-17021
plot	-17022
rary	-17023
rate	-17024
reet	-17025
rief	-17026
roid	-17027
ross	-17028
span	-17029
ters	-17030
ymph	-17031
yond	-17032
zger	-17033
}{5}	-17034
▁-->	-17035
▁16.	-17036
▁17.	-17037
▁19.	-17038
▁49,	-17039
▁55,	-17040
▁77,	-17041
▁8.9	-17042
▁85,	-17043
▁Ant	-17044
▁App	-17045
▁Are	-17046
▁Ari	-17047
▁Che	-17048
▁Con	-17049
▁Del	-17050
▁Ein	-17051
▁Fre	-17052
▁Gar	-17053
▁Job	-17054
▁Our	-17055
▁Sam	-17056
▁Sol	-17057
▁Viv	-17058
▁Who	-17059
▁Xia	-17060
▁div	-17061
▁era	-17062
▁hat	-17063
▁ins	-17064
▁led	-17065
▁low	-17066
▁mob	-17067
▁mon	-17068
▁opt	-17069
▁pet	-17070
▁voy	-17071
▁准备好	-17072
▁创业者	-17073
▁另一个	-17074
▁在未来	-17075
▁将给定	-17076
▁将面粉	-17077
▁我的狗	-17078
▁据报道	-17079
▁时间戳	-17080
▁某城市	-17081
▁深呼吸	-17082
▁让我们	-17083
▁谢谢您	-17084
▁黑胡椒	-17085
一切顺利	-17086
一家公司	-17087
不可替代	-17088
不可逆转	-17089
不同寻常	-17090
不断上升	-17091
不断创新	-17092
不断完善	-17093
不是一个	-17094
不知道该	-17095
不确定性	-17096
不要害怕	-17097
不要忘记	-17098
中的数字	-17099
为主题的	-17100
为了确保	-17101
为了避免	-17102
为什么要	-17103
为你提供	-17104
为您服务	-17105
为给定的	-17106
交流方式	-17107
交通事故	-17108
人造智能	-17109
今天是个	-17110
他们开始	-17111
他们必须	-17112
他们是否	-17113
以上步骤	-17114
以下数字	-17115
以帮助我	-17116
任何一个	-17117
优先级和	-17118
优惠活动	-17119
你怎么样	-17120
你的产品	-17121
你的文章	-17122
你知道吗	-17123
你能给我	-17124
使用英语	-17125
保护措施	-17126
保护森林	-17127
做了很多	-17128
做出决定	-17129
做得更好	-17130
全球各国	-17131
公共场合	-17132
公司产品	-17133
关键词的	-17134
其中至少	-17135
其他人的	-17136
具有逻辑	-17137
内置函数	-17138
再次发生	-17139
写出一篇	-17140
准备工作	-17141
准确预测	-17142
减少垃圾	-17143
几十年中	-17144
分为两个	-17145
分类标签	-17146
则是一种	-17147
创新能力	-17148
制作一个	-17149
加入锅中	-17150
努力学习	-17151
包含指定	-17152
包括一个	-17153
包括选择	-17154
北京首都	-17155
医学领域	-17156
升序排序	-17157
华盛顿特	-17158
历史遗迹	-17159
句子类型	-17160
可以包括	-17161
可以更加	-17162
可以确保	-17163
可以缓解	-17164
可以让人	-17165
可以避免	-17166
可能无法	-17167
可读性和	-17168
吃了一个	-17169
各种疾病	-17170
同时提高	-17171
同时还能	-17172
名和密码	-17173
吸取教训	-17174
呼吸练习	-17175
和水资源	-17176
和高脂肪	-17177
品牌宣传	-17178
品种的狗	-17179
商品描述	-17180
商品评论	-17181
四大发明	-17182
回到家后	-17183
回归模型	-17184
因此无法	-17185
团队建设	-17186
国际机场	-17187
在学校里	-17188
在家办公	-17189
在线商店	-17190
复数形式	-17191
复杂性和	-17192
多元化的	-17193
奥林匹克	-17194
好奇心和	-17195
如何保持	-17196
如果您有	-17197
字的关于	-17198
学习中文	-17199
学习方法	-17200
孩子们的	-17201
它们通常	-17202
完成一个	-17203
客户群体	-17204
密切关注	-17205
对其中的	-17206
对未来的	-17207
对自己的	-17208
将会更加	-17209
将所有的	-17210
小明和小	-17211
小罗伯特	-17212
工作人员	-17213
工作表现	-17214
并且能够	-17215
并探讨了	-17216
并致力于	-17217
并进行了	-17218
广告宣传	-17219
广告文案	-17220
广泛使用	-17221
建议每天	-17222
开始工作	-17223
开源项目	-17224
形容词和	-17225
影像分析	-17226
很多领域	-17227
很有前途	-17228
很有趣的	-17229
循环利用	-17230
微生物学	-17231
微软公司	-17232
心理治疗	-17233
志同道合	-17234
怎样才能	-17235
总体而言	-17236
您的投资	-17237
想要了解	-17238
想象力和	-17239
慢性疾病	-17240
成功发射	-17241
成长书籍	-17242
我们将在	-17243
我们提供	-17244
我们计划	-17245
我会一直	-17246
我可以在	-17247
我是一位	-17248
我的团队	-17249
我的职责	-17250
所有数字	-17251
才能为您	-17252
找出其中	-17253
找到所有	-17254
技术发展	-17255
技术趋势	-17256
抓住机遇	-17257
投资决策	-17258
推荐算法	-17259
提供一篇	-17260
提供最佳	-17261
提供服务	-17262
提高公众	-17263
提高自我	-17264
提高身体	-17265
撰写一份	-17266
放松心情	-17267
数字化的	-17268
数字隐私	-17269
数据中的	-17270
数据泄露	-17271
文本段落	-17272
日是星期	-17273
是因为他	-17274
是巴厘岛	-17275
是积极的	-17276
是重要的	-17277
景点之一	-17278
智能城市	-17279
智能眼镜	-17280
更加灵活	-17281
更广泛的	-17282
更方便地	-17283
最为突出	-17284
最佳状态	-17285
最大公因	-17286
最大限度	-17287
有限公司	-17288
某个特定	-17289
根据需要	-17290
模型回答	-17291
橄榄油和	-17292
欺诈行为	-17293
歌的歌词	-17294
正在成为	-17295
正确拼写	-17296
水上运动	-17297
没有错误	-17298
消费习惯	-17299
深入思考	-17300
混合面粉	-17301
添加一些	-17302
演员表现	-17303
演员阵容	-17304
火灾重心	-17305
热带水果	-17306
特定任务	-17307
狗的文章	-17308
独特之处	-17309
王者归来	-17310
环保理念	-17311
环保组织	-17312
环境教育	-17313
生产过程	-17314
生成一则	-17315
生成一句	-17316
生物恐龙	-17317
生物技术	-17318
用户猜测	-17319
用户界面	-17320
电影票房	-17321
疫情防控	-17322
的一系列	-17323
的创始人	-17324
的单词和	-17325
的咖啡馆	-17326
的帮助下	-17327
的日子里	-17328
的时间表	-17329
的理解和	-17330
的音乐家	-17331
目标市场	-17332
真的很好	-17333
研究显示	-17334
研究领域	-17335
社交支持	-17336
第二句话	-17337
简明扼要	-17338
精力充沛	-17339
素食餐食	-17340
给人们的	-17341
综合考虑	-17342
网络成瘾	-17343
联系起来	-17344
股票价格	-17345
背景信息	-17346
能够实现	-17347
能源管理	-17348
自然现象	-17349
至少三个	-17350
至少两个	-17351
节省能源	-17352
节能减排	-17353
英语文本	-17354
获取信息	-17355
营养均衡	-17356
行为准则	-17357
角膜移植	-17358
认识自己	-17359
许多公司	-17360
该地区的	-17361
该城市的	-17362
该怎么做	-17363
请写一篇	-17364
诺贝尔奖	-17365
豆瓣评分	-17366
财政政策	-17367
购买商品	-17368
输出它的	-17369
边缘计算	-17370
运营成本	-17371
这个周末	-17372
这个星球	-17373
这个案子	-17374
这些单词	-17375
这些变化	-17376
这些电影	-17377
这些症状	-17378
这导致了	-17379
这款产品	-17380
这种影响	-17381
进展情况	-17382
进行交流	-17383
适应变化	-17384
通常用于	-17385
遇到困难	-17386
那你觉得	-17387
部门经理	-17388
采取积极	-17389
重大突破	-17390
重要因素	-17391
销售渠道	-17392
销售策略	-17393
销售经理	-17394
长期目标	-17395
限制饮酒	-17396
需要得到	-17397
需要提供	-17398
需要解决	-17399
预测结果	-17400
领导能力	-17401
高楼大厦	-17402
黑暗骑士	-17403
5,000	-17404
:2019	-17405
Model	-17406
MySQL	-17407
Super	-17408
adget	-17409
agine	-17410
anies	-17411
astic	-17412
aylor	-17413
begin	-17414
chers	-17415
ellow	-17416
ender	-17417
ently	-17418
fully	-17419
garet	-17420
iring	-17421
omain	-17422
rying	-17423
stant	-17424
stead	-17425
stein	-17426
style	-17427
thing	-17428
train	-17429
ucing	-17430
where	-17431
▁2017	-17432
▁Anna	-17433
▁Lang	-17434
▁Mars	-17435
▁answ	-17436
▁code	-17437
▁cogn	-17438
▁eget	-17439
▁fall	-17440
▁girl	-17441
▁much	-17442
▁noun	-17443
▁plat	-17444
▁plus	-17445
▁room	-17446
▁same	-17447
▁then	-17448
▁year	-17449
▁作为一名	-17450
▁减少使用	-17451
▁分类标签	-17452
▁列出三个	-17453
▁创建一份	-17454
▁判断以下	-17455
▁哺乳动物	-17456
▁将下面的	-17457
▁将输入的	-17458
▁小明和小	-17459
▁巴塞罗那	-17460
▁平均值为	-17461
▁感谢您的	-17462
▁我是一名	-17463
▁推荐电影	-17464
▁时间管理	-17465
▁星球大战	-17466
▁最大值为	-17467
▁根据下面	-17468
▁正面情感	-17469
▁深度学习	-17470
▁科学家们	-17471
▁给定一份	-17472
▁给我一些	-17473
▁节约能源	-17474
▁解释一个	-17475
▁计算以下	-17476
▁设计元素	-17477
▁请写一篇	-17478
▁购物清单	-17479
▁这听起来	-17480
▁这是一部	-17481
▁选择一个	-17482
▁量子力学	-17483
▁阿甘正传	-17484
一个神秘的	-17485
一定程度上	-17486
一次性物品	-17487
一直在努力	-17488
不仅有助于	-17489
不可避免的	-17490
不断学习和	-17491
与我们联系	-17492
与潜在客户	-17493
专注于工作	-17494
中文预训练	-17495
中的重要性	-17496
之间的冲突	-17497
产品质量和	-17498
什么措施来	-17499
今天是个好	-17500
他们讨论了	-17501
他感到非常	-17502
令人难忘的	-17503
以帮助人们	-17504
企业和政府	-17505
优质的服务	-17506
你们公司的	-17507
你可以尝试	-17508
使用不同的	-17509
使用测试集	-17510
使用训练集	-17511
健康生活的	-17512
公司提供的	-17513
关注的焦点	-17514
具体的问题	-17515
具有强大的	-17516
减少废弃物	-17517
出现的频率	-17518
创造性思维	-17519
发现自己的	-17520
可爱的动物	-17521
同义词列表	-17522
后现代主义	-17523
和生活方式	-17524
和酒店预订	-17525
和野生动物	-17526
喜欢打篮球	-17527
喜欢的电影	-17528
四舍五入到	-17529
因为我不能	-17530
团队合作和	-17531
在交通领域	-17532
在教育领域	-17533
在这个季节	-17534
处理大量的	-17535
它不仅可以	-17536
容易的事情	-17537
将其应用于	-17538
小米笔记本	-17539
就业的影响	-17540
展开了一场	-17541
带来巨大的	-17542
带来更好的	-17543
带来极大的	-17544
年轻有为的	-17545
并生成一个	-17546
并进行修正	-17547
床前明月光	-17548
建议您通过	-17549
开发了一款	-17550
开发和维护	-17551
彼此之间的	-17552
很大的潜力	-17553
成功的定义	-17554
成功的秘诀	-17555
我不能提供	-17556
我们也应该	-17557
我们将探讨	-17558
我会考虑的	-17559
我可以为您	-17560
我无法执行	-17561
我明天要去	-17562
我相信你会	-17563
挑战和风险	-17564
提供了很多	-17565
搜索引擎或	-17566
摄入适量的	-17567
撒哈拉沙漠	-17568
支持和帮助	-17569
支持和鼓励	-17570
数学方程式	-17571
数据科学家	-17572
旅游景点和	-17573
明智的决策	-17574
是一部关于	-17575
是中国古代	-17576
最长的单词	-17577
有效的措施	-17578
有氧运动和	-17579
未来的教育	-17580
本文将介绍	-17581
机器人技术	-17582
材料和步骤	-17583
根据提供的	-17584
款智能手机	-17585
正确的姿势	-17586
海姆斯沃斯	-17587
涂上番茄酱	-17588
深刻的影响	-17589
温暖的阳光	-17590
演员的表演	-17591
现代物理学	-17592
用于预训练	-17593
疯狂动物城	-17594
的安全性和	-17595
的工作原理	-17596
的快速发展	-17597
的日程安排	-17598
的未来发展	-17599
的电影推荐	-17600
的详细信息	-17601
的重要性和	-17602
的问题之一	-17603
的随机密码	-17604
的饮食计划	-17605
盐和胡椒粉	-17606
相似度分数	-17607
相关的段落	-17608
相反的句子	-17609
科学家发现	-17610
移动互联网	-17611
简短的句子	-17612
纽约市中心	-17613
维持身体的	-17614
美丽的风景	-17615
而有所不同	-17616
而闻名于世	-17617
自动化工具	-17618
自己的公司	-17619
计算平均值	-17620
让我们更加	-17621
训练数据和	-17622
讲述了一位	-17623
评分和简介	-17624
识别准确率	-17625
详细的计划	-17626
语音识别和	-17627
越来越大的	-17628
身体和大脑	-17629
达成了一致	-17630
还可以用于	-17631
这个城市的	-17632
这将是一个	-17633
这项技术的	-17634
适度的锻炼	-17635
造成的影响	-17636
遇到的问题	-17637
陌生的地方	-17638
2,3,4,	-17639
Chorus	-17640
[::-1]	-17641
amsung	-17642
ection	-17643
ensive	-17644
erment	-17645
icious	-17646
istant	-17647
itions	-17648
itters	-17649
onardo	-17650
priate	-17651
rendre	-17652
should	-17653
▁Belle	-17654
▁Black	-17655
▁Dress	-17656
▁Emoji	-17657
▁Every	-17658
▁Jenny	-17659
▁Lorem	-17660
▁Scott	-17661
▁Susan	-17662
▁Title	-17663
▁WORLD	-17664
▁based	-17665
▁divid	-17666
▁docum	-17667
▁doesn	-17668
▁effic	-17669
▁faith	-17670
▁influ	-17671
▁likes	-17672
▁novel	-17673
▁ounce	-17674
▁plage	-17675
▁point	-17676
▁renew	-17677
▁thing	-17678
▁为以下句子	-17679
▁在现代社会	-17680
▁将以下短文	-17681
▁将给定文本	-17682
▁请创建一个	-17683
▁请编写一篇	-17684
一篇新闻报道	-17685
之间的随机数	-17686
也变得越来越	-17687
人工智能应用	-17688
今天天气很好	-17689
使其成为一个	-17690
信息过滤工具	-17691
具有重要意义	-17692
减少环境污染	-17693
减少能源消耗	-17694
减轻工作压力	-17695
出现频率最高	-17696
可以使用以下	-17697
可以随时随地	-17698
可持续发展和	-17699
可持续的未来	-17700
和他的朋友们	-17701
在这篇文章中	-17702
地图应用程序	-17703
实际应用场景	-17704
小数点后两位	-17705
市场营销计划	-17706
建立了深厚的	-17707
我喜欢在周末	-17708
我想了解一下	-17709
时间管理技巧	-17710
是一个重要的	-17711
替换后的句子	-17712
最大公约数是	-17713
根据个人口味	-17714
演员表现出色	-17715
生成一个描述	-17716
用户名和密码	-17717
用户提供一个	-17718
电子商务网站	-17719
神经系统疾病	-17720
积极的措施来	-17721
空气中弥漫着	-17722
等方面的内容	-17723
编写一篇关于	-17724
超级英雄电影	-17725
适合出门散步	-17726
通过社交媒体	-17727
需要以下步骤	-17728
饮用足够的水	-17729
......”	-17730
egative	-17731
ference	-17732
lescope	-17733
toEqual	-17734
ymphony	-17735
zgerald	-17736
▁Ariana	-17737
▁AutoML	-17738
▁Grande	-17739
▁Justin	-17740
▁SpaceX	-17741
▁cancer	-17742
▁chocol	-17743
▁device	-17744
▁eating	-17745
▁fruits	-17746
▁ground	-17747
▁invest	-17748
▁mental	-17749
▁mobile	-17750
▁recomm	-17751
▁resume	-17752
▁scient	-17753
▁simple	-17754
▁sorrow	-17755
▁strong	-17756
▁为给定的一组	-17757
▁为给定的电影	-17758
▁在以下文本中	-17759
▁在另一个碗中	-17760
▁将下面的句子	-17761
▁生成一篇有关	-17762
▁给出一个描述	-17763
▁给定两个文本	-17764
▁这是一篇有关	-17765
不断学习和成长	-17766
人工智能可能会	-17767
保证充足的睡眠	-17768
健康饮食的文章	-17769
历史上最伟大的	-17770
可能的解决方案	-17771
太阳能电池技术	-17772
实现可持续发展	-17773
我们共同的家园	-17774
我们的个人信息	-17775
找到了回家的路	-17776
推广可再生能源	-17777
提供更好的服务	-17778
数字的平均值是	-17779
是世界上最大的	-17780
更加美好的未来	-17781
最好的朋友之一	-17782
最长公共子序列	-17783
网站或应用程序	-17784
英文翻译成中文	-17785
随着科技的发展	-17786
高强度间歇训练	-17787
datetime	-17788
eethoven	-17789
ividuals	-17790
▁Bonjour	-17791
▁ability	-17792
▁another	-17793
▁climate	-17794
▁counter	-17795
▁created	-17796
▁disease	-17797
▁greater	-17798
▁instead	-17799
▁overall	-17800
▁perfect	-17801
▁pleased	-17802
▁popular	-17803
▁respons	-17804
▁science	-17805
▁subject	-17806
▁teacher	-17807
▁weekend	-17808
▁以下是一篇文章	-17809
▁根据输入的句子	-17810
▁根据输入的文本	-17811
一名年轻的程序员	-17812
与自然之间的关系	-17813
产生了巨大的影响	-17814
人工智能可以根据	-17815
人工智能可以用于	-17816
使用机器学习算法	-17817
可以帮助你更好地	-17818
可以根据个人口味	-17819
将它们组合成一个	-17820
我们每个人都应该	-17821
是一个不错的选择	-17822
Microsoft	-17823
Yesterday	-17824
egression	-17825
▁Einstein	-17826
▁Language	-17827
▁Xiaoming	-17828
▁concerns	-17829
▁positive	-17830
▁regarder	-17831
▁reversed	-17832
▁描述一下如何制作	-17833
▁根据所提供的输入	-17834
▁根据给定的关键字	-17835
▁给出一个数学问题	-17836
▁给出一个英文句子	-17837
▁给定一个数字列表	-17838
每个单词首字母大写	-17839
英文文本翻译成中文	-17840
随着技术的不断进步	-17841
面临的最大挑战之一	-17842
▁awareness	-17843
▁calculate	-17844
▁corrected	-17845
▁direction	-17846
▁education	-17847
▁lifestyle	-17848
▁necessary	-17849
▁paragraph	-17850
▁structure	-17851
▁transport	-17852
▁根据给定的输入文本	-17853
▁根据输入的两个数字	-17854
人工智能对社会的影响	-17855
▁Fitzgerald	-17856
▁importance	-17857
▁laboratory	-17858
▁revolution	-17859
▁smartphone	-17860
▁translated	-17861
基于深度学习的推荐算法	-17862
敏捷的棕色狐狸跃过懒狗	-17863
最大公约数和最小公倍数	-17864
▁challenging	-17865
▁communicate	-17866
▁individuals	-17867
▁performance	-17868
▁increasingly	-17869
▁将以下两个句子合并成一个	-17870
随着人工智能技术的不断发展	-17871
"}	-17872
+5	-17873
,3	-17874
,8	-17875
-8	-17876
-¥	-17877
1}	-17878
1°	-17879
2%	-17880
6)	-17881
7:	-17882
7。	-17883
:|	-17884
AN	-17885
BM	-17886
CF	-17887
CN	-17888
DP	-17889
HD	-17890
Re	-17891
Wh	-17892
Yo	-17893
["	-17894
]。	-17895
ba	-17896
da	-17897
fé	-17898
ih	-17899
ij	-17900
kl	-17901
zy	-17902
▁¿	-17903
▁√	-17904
▁∧	-17905
▁≈	-17906
▁别	-17907
▁孙	-17908
▁少	-17909
▁应	-17910
▁最	-17911
▁树	-17912
▁波	-17913
▁泰	-17914
▁炒	-17915
▁短	-17916
▁草	-17917
▁莫	-17918
▁落	-17919
▁辛	-17920
▁都	-17921
▁食	-17922
▁香	-17923
▁鱼	-17924
、2	-17925
、7	-17926
。-	-17927
です	-17928
一台	-17929
一根	-17930
一类	-17931
一路	-17932
七代	-17933
上市	-17934
上画	-17935
下滑	-17936
下着	-17937
不含	-17938
不已	-17939
不清	-17940
不论	-17941
不高	-17942
与同	-17943
与罚	-17944
丑陋	-17945
世佳	-17946
东野	-17947
两名	-17948
个字	-17949
中午	-17950
为例	-17951
主任	-17952
主张	-17953
主持	-17954
之余	-17955
之庸	-17956
乔伊	-17957
乙方	-17958
也纳	-17959
书中	-17960
书名	-17961
书评	-17962
买的	-17963
乳汁	-17964
争吵	-17965
争斗	-17966
互联	-17967
交织	-17968
产物	-17969
亮的	-17970
亲切	-17971
今日	-17972
从何	-17973
仓鼠	-17974
他将	-17975
他有	-17976
他要	-17977
以防	-17978
价为	-17979
会计	-17980
伟大	-17981
传染	-17982
但仍	-17983
但其	-17984
低于	-17985
住在	-17986
佐伊	-17987
何地	-17988
何处	-17989
你不	-17990
使他	-17991
保时	-17992
保鲜	-17993
修建	-17994
借口	-17995
债务	-17996
值为	-17997
值和	-17998
值的	-17999
倾斜	-18000
偏向	-18001
做些	-18002
做完	-18003
做过	-18004
停放	-18005
停滞	-18006
先从	-18007
先后	-18008
光学	-18009
入狱	-18010
全民	-18011
关节	-18012
养生	-18013
兽场	-18014
再到	-18015
再将	-18016
冒泡	-18017
冬奥	-18018
冲洗	-18019
减脂	-18020
减速	-18021
凝土	-18022
出勤	-18023
出台	-18024
出售	-18025
出游	-18026
分号	-18027
分离	-18028
切块	-18029
切换	-18030
初中	-18031
初恋	-18032
利息	-18033
制服	-18034
刷新	-18035
前三	-18036
加哥	-18037
包容	-18038
化简	-18039
北省	-18040
区中	-18041
升起	-18042
单个	-18043
卖家	-18044
卖点	-18045
占比	-18046
卡尔	-18047
卡通	-18048
卢克	-18049
厕所	-18050
去处	-18051
去重	-18052
双向	-18053
受损	-18054
变迁	-18055
口才	-18056
口水	-18057
古城	-18058
召回	-18059
可见	-18060
右侧	-18061
各类	-18062
后期	-18063
向你	-18064
含糖	-18065
周六	-18066
周日	-18067
呼叫	-18068
命题	-18069
和最	-18070
和门	-18071
品酒	-18072
哈佛	-18073
哈里	-18074
响了	-18075
唤醒	-18076
喀里	-18077
喂食	-18078
喷泉	-18079
嘉丽	-18080
器等	-18081
园艺	-18082
国立	-18083
在做	-18084
圭吾	-18085
地亚	-18086
地标	-18087
地质	-18088
城墙	-18089
基准	-18090
基酸	-18091
塔桥	-18092
士顿	-18093
处处	-18094
备忘	-18095
外形	-18096
外线	-18097
多巴	-18098
夜幕	-18099
大火	-18100
天边	-18101
女巫	-18102
如有	-18103
妇女	-18104
姐妹	-18105
孔雀	-18106
孟买	-18107
孤单	-18108
学好	-18109
它以	-18110
官司	-18111
宛如	-18112
客观	-18113
家务	-18114
家常	-18115
家用	-18116
家电	-18117
宽敞	-18118
导盲	-18119
射线	-18120
就有	-18121
尼迪	-18122
山林	-18123
巨型	-18124
市值	-18125
市区	-18126
帕玛	-18127
平和	-18128
平行	-18129
年在	-18130
年间	-18131
并被	-18132
并附	-18133
广受	-18134
库珀	-18135
式和	-18136
弱的	-18137
弹出	-18138
弹奏	-18139
当做	-18140
影音	-18141
往事	-18142
律和	-18143
徐汇	-18144
得对	-18145
徘徊	-18146
快来	-18147
快走	-18148
怀特	-18149
恶心	-18150
您所	-18151
情报	-18152
情歌	-18153
意和	-18154
懂了	-18155
成人	-18156
我都	-18157
所选	-18158
手写	-18159
手指	-18160
手稿	-18161
打乱	-18162
打扰	-18163
打断	-18164
抗震	-18165
报价	-18166
抬头	-18167
抵达	-18168
拉提	-18169
招募	-18170
捞出	-18171
揉成	-18172
携手	-18173
摆放	-18174
摇晃	-18175
撒在	-18176
攀登	-18177
收割	-18178
敌人	-18179
教室	-18180
敲门	-18181
新品	-18182
施加	-18183
日到	-18184
日和	-18185
日语	-18186
早早	-18187
明月	-18188
易见	-18189
是从	-18190
是要	-18191
是让	-18192
是这	-18193
显然	-18194
显而	-18195
晃动	-18196
晚会	-18197
更少	-18198
最优	-18199
最短	-18200
有过	-18201
服用	-18202
朝阳	-18203
未能	-18204
本土	-18205
机中	-18206
来将	-18207
杰明	-18208
林中	-18209
果断	-18210
查德	-18211
查阅	-18212
柯基	-18213
核糖	-18214
核酸	-18215
档案	-18216
梅根	-18217
欣慰	-18218
欺骗	-18219
此时	-18220
残留	-18221
每月	-18222
每行	-18223
每餐	-18224
比分	-18225
水源	-18226
水煮	-18227
水质	-18228
汽水	-18229
沃尔	-18230
沃茨	-18231
沃辛	-18232
沉闷	-18233
沐浴	-18234
沙子	-18235
河岸	-18236
河边	-18237
注射	-18238
洪涝	-18239
流失	-18240
浇水	-18241
浓厚	-18242
海伦	-18243
海豹	-18244
浸泡	-18245
涡轮	-18246
淋上	-18247
深情	-18248
深感	-18249
清爽	-18250
清醒	-18251
清除	-18252
温水	-18253
港口	-18254
游牧	-18255
湿润	-18256
滑板	-18257
潺潺	-18258
激活	-18259
火药	-18260
灾区	-18261
点燃	-18262
热的	-18263
照看	-18264
爱心	-18265
爱河	-18266
牛至	-18267
牢记	-18268
特质	-18269
犯错	-18270
狗粮	-18271
狡猾	-18272
狭窄	-18273
猫是	-18274
率等	-18275
环绕	-18276
珍视	-18277
珠子	-18278
瑰宝	-18279
甜蜜	-18280
生肖	-18281
田野	-18282
畅游	-18283
留在	-18284
疏忽	-18285
疑是	-18286
疑难	-18287
病例	-18288
登上	-18289
白血	-18290
的收	-18291
皮尔	-18292
盘子	-18293
盲目	-18294
相乘	-18295
相依	-18296
真谛	-18297
眼中	-18298
知的	-18299
碗里	-18300
礼服	-18301
礼者	-18302
神器	-18303
福祉	-18304
离婚	-18305
秋风	-18306
秘籍	-18307
究竟	-18308
站姿	-18309
竟然	-18310
童年	-18311
童话	-18312
等你	-18313
简体	-18314
简练	-18315
精简	-18316
精良	-18317
纠缠	-18318
红枣	-18319
红椒	-18320
线图	-18321
细心	-18322
织物	-18323
结婚	-18324
绿化	-18325
缓冲	-18326
编剧	-18327
缝纫	-18328
置于	-18329
群落	-18330
翩翩	-18331
翻转	-18332
老练	-18333
聊聊	-18334
肉饼	-18335
肢体	-18336
背叛	-18337
脱氧	-18338
腾讯	-18339
舒缓	-18340
舞台	-18341
舞曲	-18342
船上	-18343
艰辛	-18344
色调	-18345
苏打	-18346
若干	-18347
英镑	-18348
茄子	-18349
茸茸	-18350
草坪	-18351
草药	-18352
荷兰	-18353
莉亚	-18354
莱德	-18355
莴苣	-18356
菊花	-18357
菜花	-18358
落实	-18359
蓝牙	-18360
藏在	-18361
袋鼠	-18362
西南	-18363
西式	-18364
解放	-18365
警报	-18366
订购	-18367
词频	-18368
试用	-18369
请假	-18370
读过	-18371
谈到	-18372
谎言	-18373
贪婪	-18374
贵重	-18375
费城	-18376
赛事	-18377
走去	-18378
赶到	-18379
起步	-18380
起舞	-18381
起诉	-18382
足以	-18383
跑到	-18384
跑得	-18385
跳高	-18386
车和	-18387
转身	-18388
辞职	-18389
辩护	-18390
过头	-18391
运送	-18392
近视	-18393
还没	-18394
这为	-18395
这句	-18396
这很	-18397
这把	-18398
这时	-18399
迷宫	-18400
追捕	-18401
追赶	-18402
退化	-18403
送往	-18404
送货	-18405
逐个	-18406
通往	-18407
速率	-18408
道具	-18409
邮政	-18410
部件	-18411
都与	-18412
都要	-18413
配对	-18414
钱七	-18415
链接	-18416
镜头	-18417
长发	-18418
闪电	-18419
限量	-18420
隐喻	-18421
隔离	-18422
雄性	-18423
雅典	-18424
雇佣	-18425
雇员	-18426
雕像	-18427
雨林	-18428
雨果	-18429
雪山	-18430
雷格	-18431
雾霾	-18432
露天	-18433
青岛	-18434
静态	-18435
面馆	-18436
顶部	-18437
顿饭	-18438
颗粒	-18439
飘荡	-18440
飞了	-18441
高低	-18442
鸡腿	-18443
麦片	-18444
麦芬	-18445
黑帮	-18446
'),	-18447
(1)	-18448
(19	-18449
(2,	-18450
(3)	-18451
(30	-18452
(5)	-18453
,18	-18454
,24	-18455
---	-18456
-1)	-18457
-19	-18458
-35	-18459
-60	-18460
0.5	-18461
10)	-18462
101	-18463
10。	-18464
13。	-18465
14,	-18466
20,	-18467
3),	-18468
333	-18469
350	-18470
5-6	-18471
50。	-18472
550	-18473
67。	-18474
80%	-18475
80,	-18476
:["	-18477
AMP	-18478
Ang	-18479
Cap	-18480
Ind	-18481
Mag	-18482
TCP	-18483
UTC	-18484
aby	-18485
add	-18486
alf	-18487
ano	-18488
auc	-18489
axy	-18490
bel	-18491
bon	-18492
ced	-18493
eck	-18494
ems	-18495
eps	-18496
for	-18497
gie	-18498
hip	-18499
iat	-18500
icy	-18501
ilk	-18502
ims	-18503
ipp	-18504
irt	-18505
iza	-18506
lus	-18507
mid	-18508
nal	-18509
nic	-18510
odf	-18511
org	-18512
osp	-18513
ota	-18514
rer	-18515
rol	-18516
sit	-18517
sol	-18518
tal	-18519
uff	-18520
ugg	-18521
uts	-18522
you	-18523
▁-《	-18524
▁//	-18525
▁0;	-18526
▁60	-18527
▁80	-18528
▁Av	-18529
▁Gu	-18530
▁If	-18531
[...]
